<unk>	0
<s>	0
</s>	0
▁	-2.51258
s	-3.12031
▁the	-3.19598
▁,	-3.37648
ed	-3.67559
▁.	-3.69418
▁of	-3.92888
▁and	-4.05788
▁in	-4.25399
▁to	-4.26623
▁a	-4.30825
ing	-4.42619
y	-4.49543
▁=	-4.59403
▁"	-4.63761
e	-4.79967
@	-4.89597
▁was	-4.92999
▁The	-5.01456
▁'	-5.06436
▁@	-5.07191
-	-5.13723
m	-5.15688
ly	-5.20295
▁that	-5.33216
▁with	-5.34821
▁on	-5.34887
▁for	-5.35627
n	-5.45957
▁as	-5.46127
▁by	-5.48746
(	-5.49658
d	-5.50907
▁is	-5.53247
▁be	-5.5575
t	-5.55798
▁fro	-5.78886
.	-5.83735
▁his	-5.84743
▁at	-5.87617
al	-5.93773
▁were	-5.98795
▁it	-6.00002
er	-6.0327
▁an	-6.09169
▁In	-6.12045
a	-6.14871
▁he	-6.15595
▁had	-6.23833
th	-6.24874
▁which	-6.26779
▁A	-6.31882
r	-6.33098
es	-6.42093
▁are	-6.42944
▁not	-6.43919
o	-6.43945
l	-6.45967
▁their	-6.57019
▁but	-6.57089
ies	-6.58828
▁first	-6.59642
–	-6.61124
▁I	-6.64336
▁her	-6.65141
also	-6.66435
st	-6.6732
▁or	-6.68809
ion	-6.68813
▁who	-6.73174
▁have	-6.74258
▁its	-6.76512
▁has	-6.7727
▁He	-6.78951
▁one	-6.79123
on	-6.80037
▁been	-6.80236
▁two	-6.80597
▁B	-6.82659
le	-6.84539
in	-6.84987
this	-6.85569
▁F	-6.90042
▁year	-6.90663
▁C	-6.96399
▁after	-6.9736
▁It	-6.97952
▁S	-6.98382
▁@,@	-6.98808
▁time	-7.01911
▁game	-7.02567
▁over	-7.05264
▁other	-7.05471
i	-7.05541
ce	-7.06929
uch	-7.07543
▁1	-7.08316
▁into	-7.08713
▁would	-7.13041
▁D	-7.1382
▁more	-7.14011
▁2	-7.15322
ic	-7.16186
mber	-7.17992
h	-7.1907
or	-7.19415
us	-7.19662
▁all	-7.20391
u	-7.21096
▁she	-7.21315
an	-7.21974
ive	-7.22697
ish	-7.22965
▁when	-7.26073
▁dur	-7.27623
▁up	-7.28223
ve	-7.28429
▁song	-7.29594
▁includ	-7.30536
▁play	-7.31062
▁most	-7.31375
c	-7.31444
▁3	-7.32256
ity	-7.33461
twee	-7.35034
▁only	-7.35532
about	-7.35581
▁us	-7.3586
▁him	-7.36907
▁out	-7.37314
▁f	-7.37339
▁some	-7.38004
▁again	-7.38387
▁season	-7.38787
ation	-7.38869
▁three	-7.38994
▁On	-7.39112
▁than	-7.3974
en	-7.39865
ever	-7.41659
▁new	-7.41863
▁U	-7.42208
▁man	-7.4371
▁through	-7.43758
▁part	-7.44224
▁whil	-7.44342
▁E	-7.44552
▁later	-7.44951
land	-7.45879
ar	-7.46294
▁film	-7.46435
b	-7.47048
▁mad	-7.48227
g	-7.49573
f	-7.50738
▁L	-7.50816
able	-7.51134
▁New	-7.51952
▁M	-7.52292
est	-7.526
se	-7.52644
ten	-7.53026
ary	-7.53218
▁P	-7.53349
▁large	-7.54543
▁where	-7.55465
▁second	-7.5578
▁number	-7.57057
▁R	-7.57301
1	-7.57368
▁5	-7.57841
▁follow	-7.57975
▁19	-7.58453
▁This	-7.58685
▁four	-7.59447
▁under	-7.59579
▁record	-7.59681
out	-7.60259
▁call	-7.60291
▁album	-7.60611
▁000	-7.60634
▁work	-7.60788
▁before	-7.61295
▁day	-7.61368
▁no	-7.61576
▁4	-7.6161
is	-7.62119
▁can	-7.62248
▁w	-7.62695
p	-7.63669
2	-7.65477
▁T	-7.66003
came	-7.66928
gan	-7.66954
k	-7.67042
▁show	-7.67089
known	-7.67325
son	-7.67645
6	-7.67748
▁end	-7.68379
▁being	-7.69356
▁high	-7.69498
▁series	-7.6975
▁area	-7.70205
▁re	-7.71166
though	-7.72002
▁both	-7.72235
▁there	-7.7248
ment	-7.72746
9	-7.73037
▁like	-7.73964
▁10	-7.7437
▁cit	-7.74617
▁episode	-7.75883
▁well	-7.7653
re	-7.77923
man	-7.78753
▁6	-7.79643
▁form	-7.80063
▁found	-7.80219
▁United	-7.80475
▁O	-7.80497
▁20	-7.80767
▁un	-7.80836
cause	-7.81247
▁long	-7.82242
▁use	-7.82442
▁de	-7.83216
▁century	-7.83462
▁After	-7.83798
it	-7.8407
3	-7.8418
w	-7.84478
ers	-7.8506
▁Brit	-7.85203
4	-7.85568
▁sever	-7.85883
▁American	-7.86074
▁so	-7.86941
▁She	-7.87097
▁final	-7.87729
▁team	-7.88315
▁near	-7.88777
▁John	-7.88898
el	-7.89796
▁remain	-7.90243
ry	-7.9079
▁could	-7.91827
ia	-7.9199
▁9	-7.92015
▁did	-7.9248
▁earl	-7.92637
▁As	-7.92742
um	-7.92794
round	-7.92824
age	-7.94106
ther	-7.94525
▁along	-7.9456
▁8	-7.95005
ra	-7.95415
other	-7.95431
z	-7.95713
▁may	-7.95739
▁War	-7.95818
▁Al	-7.9596
▁12	-7.96129
▁start	-7.96214
7	-7.96431
▁back	-7.97133
5	-7.97443
▁character	-7.97616
if	-7.97913
▁W	-7.9825
▁unti	-7.98836
▁How	-7.99124
▁name	-7.99404
ok	-7.99635
▁K	-7.99741
▁0	-8.00183
▁original	-8.01159
▁million	-8.01285
▁b	-8.02103
▁people	-8.02316
▁return	-8.02629
▁At	-8.03278
▁km	-8.03326
▁May	-8.03613
▁7	-8.03835
▁player	-8.03849
▁J	-8.0389
▁main	-8.04233
ton	-8.04429
▁force	-8.04461
▁North	-8.04871
8	-8.04908
▁al	-8.05159
▁Be	-8.05263
▁August	-8.05281
ch	-8.05637
▁down	-8.05641
▁how	-8.05946
▁sam	-8.06045
▁off	-8.06415
▁see	-8.06489
▁ship	-8.07052
▁South	-8.07891
▁N	-8.08128
▁releas	-8.08392
▁support	-8.08393
▁15	-8.08782
▁set	-8.09355
▁place	-8.09816
▁receiv	-8.09837
▁small	-8.10352
▁them	-8.10491
▁life	-8.1069
▁An	-8.1117
▁16	-8.11174
at	-8.11341
▁lead	-8.11637
▁c	-8.11743
▁group	-8.11831
▁Septe	-8.11832
▁Jun	-8.11859
▁each	-8.12204
▁point	-8.12536
▁do	-8.12558
▁any	-8.13212
▁German	-8.13218
▁World	-8.13451
▁line	-8.136
ance	-8.14516
ur	-8.14801
▁order	-8.1493
▁six	-8.15022
▁single	-8.1512
▁attack	-8.15216
▁18	-8.15482
▁result	-8.15573
▁appear	-8.16021
▁will	-8.16436
▁describ	-8.16787
▁home	-8.17254
▁G	-8.17391
▁own	-8.17657
▁Man	-8.1813
ne	-8.1821
▁music	-8.18257
▁great	-8.1897
▁199	-8.19786
ir	-8.20393
▁major	-8.20705
▁since	-8.20831
▁state	-8.20893
▁17	-8.21058
▁Dur	-8.21295
▁11	-8.21318
▁consider	-8.21423
▁bas	-8.21785
▁what	-8.22355
▁reach	-8.23525
▁ga	-8.23893
▁Jul	-8.24004
▁famil	-8.24029
▁air	-8.24128
ley	-8.24585
▁system	-8.2467
▁Oct	-8.24675
▁late	-8.24772
▁States	-8.24865
▁mov	-8.24926
ren	-8.25085
▁Ap	-8.25106
▁due	-8.25133
ober	-8.25281
▁last	-8.2589
ro	-8.26258
▁Jan	-8.26282
$	-8.26513
▁take	-8.26755
▁...	-8.26862
rote	-8.26905
▁week	-8.27032
ous	-8.27429
▁won	-8.27553
opical	-8.27667
▁St	-8.27827
species	-8.28229
▁No	-8.28343
be	-8.28454
[	-8.28526
▁water	-8.28647
▁York	-8.28798
et	-8.28817
▁sai	-8.28946
ril	-8.28961
ian	-8.29124
ese	-8.292
▁world	-8.29207
▁13	-8.29255
▁role	-8.29352
▁now	-8.29569
▁To	-8.29572
▁war	-8.29881
S	-8.29974
▁child	-8.31136
▁H	-8.31466
as	-8.31536
te	-8.31758
▁allow	-8.326
▁short	-8.32928
▁direct	-8.33008
▁run	-8.33239
▁death	-8.33396
very	-8.33412
▁just	-8.33532
▁p	-8.34139
▁include	-8.34295
x	-8.34441
ical	-8.3481
▁storm	-8.35188
▁England	-8.35401
▁government	-8.35408
▁left	-8.35699
▁north	-8.3574
▁video	-8.35838
▁Nove	-8.36059
▁position	-8.3613
na	-8.36254
▁attempt	-8.36864
▁di	-8.37028
▁30	-8.3725
▁perform	-8.37428
▁open	-8.37447
▁March	-8.37774
▁third	-8.37902
▁event	-8.37953
▁side	-8.38038
▁title	-8.381
▁14	-8.38151
▁Re	-8.3841
ie	-8.38492
▁general	-8.38662
▁release	-8.39065
▁previous	-8.39251
▁For	-8.39486
▁become	-8.39589
▁south	-8.39834
▁design	-8.39844
▁period	-8.40008
side	-8.40161
▁book	-8.40182
▁school	-8.40466
ist	-8.4074
▁make	-8.41095
▁head	-8.41389
▁Dece	-8.4165
uar	-8.42064
▁local	-8.42316
▁best	-8.42773
hose	-8.42892
▁buil	-8.42999
▁develop	-8.43027
▁River	-8.4389
▁City	-8.43939
▁His	-8.43983
da	-8.44239
▁There	-8.44327
all	-8.44593
▁25	-8.44617
▁month	-8.45004
la	-8.45005
▁continu	-8.45097
▁version	-8.45158
▁power	-8.45161
▁When	-8.45166
▁turn	-8.45178
▁publish	-8.45185
▁196	-8.45214
ha	-8.45545
▁men	-8.45566
ma	-8.45609
ine	-8.45707
v	-8.46033
▁2009	-8.4663
▁even	-8.46646
▁2010	-8.46783
▁II	-8.46952
▁way	-8.47071
▁National	-8.47178
▁go	-8.4718
▁public	-8.47199
ant	-8.47263
▁2008	-8.47275
▁tr	-8.47991
▁By	-8.48707
▁church	-8.4891
▁US	-8.491
▁club	-8.49421
▁Ma	-8.49517
▁Z	-8.49856
▁top	-8.50107
▁present	-8.50173
▁establish	-8.50373
ham	-8.5039
▁feature	-8.50749
▁still	-8.51444
▁career	-8.51678
▁per	-8.5192
▁common	-8.5212
ty	-8.52226
▁V	-8.5257
co	-8.52794
▁nam	-8.52923
▁Le	-8.53023
▁197	-8.53084
ig	-8.53414
▁site	-8.53588
▁list	-8.53648
▁100	-8.5382
▁pass	-8.54098
ern	-8.54186
▁few	-8.54393
company	-8.54727
▁next	-8.54905
▁help	-8.54907
▁2007	-8.54929
▁yard	-8.55001
▁old	-8.5524
▁close	-8.55677
▁art	-8.55727
▁led	-8.55901
▁French	-8.5597
▁contain	-8.56149
▁building	-8.56316
▁land	-8.56446
il	-8.56483
▁English	-8.56507
▁arm	-8.56604
▁All	-8.5673
▁writ	-8.56878
▁State	-8.56982
nd	-8.57465
▁claim	-8.57775
▁produc	-8.57902
held	-8.57917
▁histor	-8.57971
ge	-8.58133
▁cover	-8.58364
ft	-8.58383
▁One	-8.58594
▁right	-8.587
▁Wal	-8.58752
▁you	-8.58864
▁seven	-8.59416
▁level	-8.59419
way	-8.59459
▁Some	-8.59522
craft	-8.59603
▁With	-8.59754
▁Division	-8.60172
▁say	-8.60207
▁half	-8.60402
▁among	-8.60723
▁former	-8.60927
by	-8.61272
▁track	-8.61386
▁total	-8.61428
▁want	-8.61537
▁full	-8.61697
▁co	-8.61821
▁production	-8.62277
▁Tr	-8.62458
▁wide	-8.62554
▁population	-8.62812
▁review	-8.63113
▁fire	-8.63352
▁suggest	-8.6344
▁every	-8.63581
▁scor	-8.63599
▁change	-8.63725
▁2011	-8.63767
▁further	-8.63961
▁different	-8.64129
▁kill	-8.64331
▁similar	-8.64398
▁According	-8.64533
▁2006	-8.64559
▁west	-8.64855
▁Church	-8.64923
stead	-8.64928
▁we	-8.65175
▁strong	-8.65668
▁militar	-8.66101
▁official	-8.66298
&	-8.66496
ebru	-8.6652
▁real	-8.6661
▁particular	-8.66893
▁21	-8.67464
▁field	-8.67616
▁Sa	-8.67674
tic	-8.67811
▁add	-8.67838
▁League	-8.68095
▁increase	-8.68095
sh	-8.68152
▁control	-8.68204
▁unit	-8.68322
line	-8.68483
▁came	-8.68484
▁win	-8.68618
▁town	-8.69035
▁Song	-8.69163
▁h	-8.69546
▁road	-8.69603
▁finish	-8.69729
▁operation	-8.69776
ter	-8.69803
▁defeat	-8.69924
▁service	-8.69935
day	-8.70101
▁project	-8.70542
▁band	-8.70562
less	-8.70637
ylan	-8.7086
▁caus	-8.71036
cross	-8.71164
▁story	-8.71261
▁194	-8.71503
▁2012	-8.71588
▁pre	-8.71859
▁match	-8.72109
▁body	-8.72202
▁Old	-8.72239
▁Park	-8.72285
▁reported	-8.72346
▁De	-8.72601
ph	-8.72623
▁popular	-8.72634
▁Bo	-8.7266
▁West	-8.72749
▁east	-8.72938
▁Her	-8.73071
▁creat	-8.73204
thing	-8.73213
im	-8.73713
ta	-8.73787
▁hav	-8.73884
▁eight	-8.73893
ll	-8.73931
▁region	-8.73943
▁star	-8.74136
▁Arm	-8.74159
▁Japan	-8.74327
▁critic	-8.74409
self	-8.74439
▁human	-8.74562
▁23	-8.74622
▁mak	-8.74778
▁fee	-8.75048
▁General	-8.75198
▁198	-8.7531
▁novel	-8.75405
▁America	-8.75846
▁writing	-8.75978
▁range	-8.76153
▁members	-8.76224
▁plan	-8.76236
ness	-8.76271
▁26	-8.76454
ite	-8.7653
lost	-8.76584
▁Whil	-8.76625
▁young	-8.76725
▁country	-8.77131
▁base	-8.77212
given	-8.7731
▁22	-8.77372
om	-8.77375
▁thought	-8.77409
▁2013	-8.77595
ga	-8.77727
▁house	-8.77774
▁light	-8.78286
▁term	-8.78432
went	-8.7853
aid	-8.78534
▁complete	-8.78641
most	-8.78701
▁never	-8.78846
▁development	-8.79003
▁style	-8.7917
▁con	-8.79391
▁tour	-8.79573
▁low	-8.79601
N	-8.79665
▁action	-8.7972
▁sign	-8.79863
▁28	-8.79877
▁Universit	-8.80049
▁though	-8.80618
▁stated	-8.80705
▁award	-8.80832
▁24	-8.80903
▁Australian	-8.80919
▁toward	-8.81327
tion	-8.81503
▁issue	-8.8166
▁scene	-8.81896
ither	-8.82183
▁chart	-8.82501
ent	-8.8251
▁enter	-8.82625
▁Ire	-8.82796
▁mi	-8.82825
▁hour	-8.82858
▁live	-8.82878
ford	-8.82979
▁join	-8.83046
▁view	-8.83141
▁King	-8.83548
▁island	-8.837
▁You	-8.8382
der	-8.83954
▁element	-8.83998
▁televis	-8.83998
▁serv	-8.84114
▁writer	-8.84149
▁50	-8.84176
▁route	-8.84477
ally	-8.84669
ondon	-8.84868
ence	-8.8539
▁get	-8.85566
end	-8.85631
▁himself	-8.85735
id	-8.8608
▁good	-8.86407
vi	-8.86467
▁fel	-8.86531
omen	-8.86569
mm	-8.86627
ial	-8.86669
▁class	-8.86719
▁act	-8.86722
▁Australia	-8.8693
ill	-8.87082
▁less	-8.87088
▁Tw	-8.87105
▁significant	-8.87173
▁white	-8.87225
▁ground	-8.87548
▁possibl	-8.87605
▁important	-8.87921
▁damage	-8.87926
▁27	-8.87959
ida	-8.88057
▁Time	-8.88188
K	-8.88338
▁initial	-8.88342
▁featur	-8.886
low	-8.88619
▁coast	-8.8869
▁female	-8.88835
ship	-8.89086
▁exist	-8.89098
ti	-8.8913
▁Chin	-8.89141
▁performance	-8.89182
▁Black	-8.89332
▁various	-8.89338
▁interest	-8.89371
▁stage	-8.89379
▁miles	-8.89554
▁grow	-8.89583
ate	-8.89805
▁earlie	-8.90038
▁father	-8.90055
▁black	-8.90082
▁James	-8.90162
cy	-8.90257
▁minute	-8.90333
▁wind	-8.9059
▁look	-8.9059
▁We	-8.90606
op	-8.90622
ward	-8.90627
▁success	-8.90933
▁successful	-8.91102
un	-8.9114
▁case	-8.91348
▁Robert	-8.91348
que	-8.91367
▁post	-8.91452
▁does	-8.91526
hind	-8.91592
▁peak	-8.9162
▁Miss	-8.9171
ac	-8.91753
▁political	-8.91936
▁need	-8.92055
▁modern	-8.92367
▁sent	-8.92534
▁discover	-8.92887
fall	-8.92903
▁announc	-8.92935
▁poem	-8.93142
▁example	-8.93661
▁County	-8.93872
▁report	-8.94287
ab	-8.94463
▁influence	-8.94482
▁should	-8.9453
to	-8.94756
▁locat	-8.94842
mp	-8.94934
▁victor	-8.94968
▁Road	-8.94968
▁La	-8.95
▁night	-8.95041
▁effect	-8.95165
A	-8.95335
▁ra	-8.95434
▁eventual	-8.95514
▁free	-8.95558
▁195	-8.95568
▁litt	-8.9592
▁hand	-8.95921
▁structure	-8.95967
▁Co	-8.9603
▁2004	-8.9659
▁entire	-8.9683
▁2005	-8.96854
away	-8.96883
▁me	-8.96918
▁Or	-8.97009
▁construction	-8.97186
▁too	-8.97285
▁Feder	-8.97355
▁Ca	-8.97364
▁put	-8.97419
▁Music	-8.97806
▁arriv	-8.97806
I	-8.9782
▁represent	-8.97846
P	-8.98032
▁X	-8.98085
ach	-8.98397
▁move	-8.98882
▁goal	-8.99426
’	-8.9955
▁date	-8.99734
▁mid	-8.99762
ld	-8.99802
▁Ra	-9.00182
li	-9.00226
▁Li	-9.00353
▁hurricane	-9.00381
▁court	-9.00382
fa	-9.00391
▁pro	-9.00443
▁command	-9.00478
ism	-9.00509
BC	-9.00651
▁difficult	-9.01219
▁Kingdom	-9.01225
▁times	-9.01248
▁give	-9.01258
▁decid	-9.01301
▁god	-9.01397
▁Atlant	-9.01511
ell	-9.01522
▁provid	-9.01703
▁campaign	-9.01782
▁Island	-9.01812
field	-9.01862
▁word	-9.02004
▁debut	-9.02065
iz	-9.02103
▁national	-9.02187
▁addition	-9.02226
am	-9.02485
▁front	-9.02578
▁battle	-9.02644
od	-9.02675
▁fight	-9.02829
14	-9.02873
▁Company	-9.02917
▁Cup	-9.02994
▁process	-9.03203
▁come	-9.03239
▁highway	-9.03559
▁liv	-9.03618
▁offer	-9.03632
▁director	-9.03641
rought	-9.03763
ol	-9.04075
▁male	-9.04103
▁France	-9.04426
▁visit	-9.0457
▁leas	-9.04582
ca	-9.04623
▁ten	-9.04689
▁Roman	-9.05107
▁complet	-9.05188
▁Battalion	-9.05226
▁figure	-9.05226
▁provide	-9.05316
▁limit	-9.05543
▁guns	-9.05543
▁Love	-9.05678
▁believ	-9.05758
▁wife	-9.05813
thus	-9.05972
▁southern	-9.06145
▁David	-9.0617
lor	-9.06387
▁study	-9.064
▁Grand	-9.06406
▁Brigade	-9.06488
00	-9.06648
▁Ga	-9.06667
▁student	-9.06696
▁river	-9.06697
ster	-9.06853
▁born	-9.06862
▁my	-9.07114
▁eastern	-9.0732
▁continue	-9.07377
one	-9.07424
D	-9.07493
▁village	-9.07589
▁relationship	-9.07593
▁2003	-9.07933
▁comment	-9.07947
▁rest	-9.08246
▁officer	-9.08332
▁mother	-9.08333
▁fail	-9.08482
▁Christian	-9.08524
▁love	-9.08541
▁loss	-9.08619
taken	-9.08652
ang	-9.08684
▁2015	-9.08811
▁Other	-9.08923
▁Wi	-9.08989
▁image	-9.09099
▁40	-9.09162
▁Nav	-9.09419
ball	-9.09498
▁stars	-9.09811
▁cell	-9.09861
▁age	-9.09896
▁Europe	-9.10015
coming	-9.10064
▁European	-9.10084
▁rock	-9.10604
▁El	-9.11076
▁heavy	-9.11242
▁lack	-9.11254
▁idea	-9.11401
▁consist	-9.11541
▁And	-9.1164
▁problem	-9.11873
▁mix	-9.11903
é	-9.12074
▁condom	-9.12184
▁program	-9.12248
▁race	-9.12373
▁San	-9.12406
▁29	-9.12738
▁William	-9.12782
ought	-9.12967
▁shot	-9.13123
de	-9.13128
▁sold	-9.13168
▁Royal	-9.13182
den	-9.13259
▁protect	-9.13358
ium	-9.13362
▁individual	-9.13437
▁Carey	-9.13447
▁Rock	-9.13466
▁law	-9.13466
ful	-9.13555
▁God	-9.13818
▁center	-9.14099
▁face	-9.14485
▁Port	-9.14509
▁communit	-9.14559
▁Flor	-9.146
▁break	-9.1464
▁Se	-9.14821
▁far	-9.15052
▁ball	-9.15061
▁Earl	-9.15152
bo	-9.15172
▁31	-9.15315
▁find	-9.15326
▁accept	-9.1539
▁begin	-9.15444
▁member	-9.15528
ver	-9.15613
▁clear	-9.15822
▁protein	-9.16014
▁gun	-9.16027
▁appearance	-9.16217
▁George	-9.16387
▁manager	-9.16416
▁king	-9.16432
ba	-9.16599
▁activit	-9.16658
▁source	-9.16658
▁Ha	-9.16663
▁International	-9.16986
▁language	-9.16986
▁Hero	-9.17005
▁East	-9.17078
▁launch	-9.17316
▁White	-9.17397
▁involv	-9.17499
▁current	-9.17645
▁destroy	-9.18201
▁burn	-9.18209
▁regular	-9.18317
▁car	-9.18391
E	-9.18667
▁deal	-9.18694
▁score	-9.18922
▁ask	-9.18941
▁voice	-9.18976
ordan	-9.18992
▁prais	-9.19069
▁House	-9.19186
▁approach	-9.19311
ouri	-9.19315
▁contract	-9.19337
▁count	-9.19354
▁size	-9.19408
▁son	-9.1953
▁central	-9.19648
▁Championship	-9.19652
au	-9.19662
▁Game	-9.19874
▁opening	-9.20015
mph	-9.20199
▁Street	-9.20304
F	-9.20307
▁hit	-9.20446
ci	-9.20582
▁non	-9.206
rd	-9.20615
▁regard	-9.20665
▁wall	-9.20779
▁Part	-9.20804
▁draw	-9.20836
▁artist	-9.20924
no	-9.20947
▁Follow	-9.21006
▁evidence	-9.21006
▁works	-9.21124
▁relat	-9.21155
▁gain	-9.21315
▁Michael	-9.21349
▁Thom	-9.21352
▁From	-9.21402
▁experience	-9.21728
▁Indian	-9.21914
ain	-9.22018
▁person	-9.22114
▁travel	-9.22297
▁Star	-9.22355
▁Su	-9.22385
▁commercial	-9.22388
▁Ver	-9.22401
▁sea	-9.22449
gen	-9.22588
▁rank	-9.22608
▁troops	-9.22714
▁subsequent	-9.22731
▁reveal	-9.22731
▁200	-9.22828
▁Ri	-9.22849
▁Me	-9.2306
▁replac	-9.23149
▁sound	-9.23157
upon	-9.23182
▁Day	-9.23435
▁mean	-9.23445
▁Peter	-9.23461
▁space	-9.23621
hu	-9.23647
ami	-9.23725
▁Val	-9.23819
▁met	-9.23917
▁outside	-9.23935
lin	-9.24288
▁bar	-9.24343
▁reason	-9.24486
▁Mary	-9.2449
read	-9.2454
▁fan	-9.24788
▁location	-9.25008
▁saw	-9.2501
▁cast	-9.25104
▁length	-9.25196
▁league	-9.25198
ated	-9.25206
▁crew	-9.25215
▁recording	-9.25408
▁competition	-9.25554
▁section	-9.25566
▁port	-9.2561
▁Mo	-9.25695
ke	-9.2574
more	-9.25761
▁Richard	-9.25914
▁cap	-9.25926
▁introduc	-9.25947
▁sp	-9.26215
▁average	-9.26226
▁international	-9.26271
▁conduct	-9.26276
▁Tech	-9.26283
▁station	-9.26313
H	-9.2632
▁Hurricane	-9.26632
▁effort	-9.26632
▁Act	-9.2667
▁account	-9.26994
▁poor	-9.27043
▁2001	-9.27047
▁extend	-9.27086
▁500	-9.27283
▁fall	-9.27289
▁appoint	-9.27313
ure	-9.27334
▁flood	-9.27358
▁material	-9.27358
▁focus	-9.27723
▁suffer	-9.27723
▁Most	-9.27807
wood	-9.27838
▁Dr	-9.27931
▁Du	-9.27953
▁red	-9.28461
M	-9.28568
ow	-9.28579
▁Air	-9.28701
rish	-9.28855
▁gold	-9.28874
ture	-9.28926
▁fift	-9.2896
▁producer	-9.29017
▁cross	-9.29045
▁agree	-9.29181
▁Paul	-9.29199
▁Villa	-9.29211
▁magazine	-9.29213
▁plann	-9.29224
▁Do	-9.29225
▁Bay	-9.29226
▁learn	-9.29568
▁stay	-9.29578
▁abo	-9.29894
▁185	-9.29904
▁Go	-9.29905
C	-9.29932
▁First	-9.29941
▁Great	-9.29949
▁football	-9.2999
▁inter	-9.30063
▁availab	-9.30188
ston	-9.30227
▁compar	-9.30315
▁decision	-9.30315
▁1970	-9.30346
▁authorit	-9.30481
▁stor	-9.30537
▁condition	-9.30691
▁quarter	-9.30699
▁think	-9.30722
▁flight	-9.30729
▁Jack	-9.31036
▁leave	-9.31058
▁quick	-9.31069
▁seem	-9.31176
cent	-9.31207
▁rain	-9.31275
II	-9.31291
▁test	-9.313
▁attend	-9.31436
£	-9.31448
▁horse	-9.31453
▁past	-9.31469
▁construct	-9.31703
▁working	-9.32014
▁office	-9.32064
▁Desp	-9.32137
▁positive	-9.3221
▁Pa	-9.32453
▁Africa	-9.32551
▁studio	-9.32592
▁maintain	-9.32593
ung	-9.32673
▁sub	-9.32753
▁soon	-9.32838
ory	-9.32917
▁Ro	-9.3298
▁Canada	-9.32981
▁business	-9.32985
▁Mi	-9.3309
▁interview	-9.33364
▁usual	-9.33406
▁estimat	-9.33718
°	-9.33751
▁President	-9.33751
▁charge	-9.33751
▁Henry	-9.33753
▁2000	-9.33809
▁referr	-9.33869
▁hold	-9.33875
▁tree	-9.33947
▁norther	-9.34062
▁machine	-9.3414
special	-9.3425
▁Hill	-9.3435
toge	-9.34351
com	-9.34433
▁letter	-9.3456
▁1990	-9.34564
▁So	-9.34653
▁dis	-9.34692
▁metre	-9.34695
▁Ka	-9.34842
▁rule	-9.34871
▁But	-9.34924
ting	-9.34948
▁sometime	-9.34967
▁India	-9.35076
▁Pol	-9.35152
▁Brown	-9.35317
▁transport	-9.35319
▁specific	-9.35319
▁Olivier	-9.35336
▁others	-9.35394
▁Sun	-9.35448
ny	-9.35693
und	-9.35797
▁must	-9.35892
men	-9.3604
▁response	-9.36108
▁capital	-9.36109
▁standard	-9.36112
▁Cha	-9.36207
▁dam	-9.36233
cal	-9.36247
▁Histor	-9.36309
▁affect	-9.3632
▁Hall	-9.36361
▁occurr	-9.365
▁Regiment	-9.36507
▁taking	-9.36507
▁western	-9.36549
▁recent	-9.36558
▁mention	-9.36599
▁Vietnam	-9.36907
▁Po	-9.3708
▁Mexico	-9.37348
▁Later	-9.37385
▁lower	-9.37392
ck	-9.37484
▁Sea	-9.37642
ick	-9.37718
▁fact	-9.37855
▁social	-9.38117
▁School	-9.38118
▁broke	-9.38122
uck	-9.38208
▁propos	-9.38264
▁special	-9.38359
▁Canadian	-9.38523
▁concert	-9.38523
formation	-9.38528
and	-9.38597
▁write	-9.38789
▁nine	-9.38928
▁brother	-9.38932
ago	-9.38956
▁religious	-9.39341
▁shape	-9.39468
ak	-9.39489
ot	-9.39558
▁ex	-9.39678
▁explain	-9.39753
▁surface	-9.39753
▁pressure	-9.39767
▁host	-9.39857
▁studie	-9.40166
▁network	-9.40167
▁1960	-9.40213
▁intend	-9.40215
▁cut	-9.40429
va	-9.40469
▁pitch	-9.40581
▁increasing	-9.40581
▁prevent	-9.40581
▁hard	-9.40604
ru	-9.40692
ina	-9.40697
▁slow	-9.40766
▁leg	-9.40844
up	-9.40909
▁forward	-9.4094
▁That	-9.40998
▁subject	-9.40999
▁Mark	-9.41013
ota	-9.41045
▁Red	-9.41056
▁despi	-9.41086
town	-9.41147
▁nucle	-9.41208
▁requir	-9.41212
▁create	-9.4139
▁Guitar	-9.41416
ler	-9.41559
▁35	-9.41572
▁know	-9.41653
▁camp	-9.41759
▁Mount	-9.41826
▁Zealand	-9.41836
▁professional	-9.41838
▁Centr	-9.41839
▁typical	-9.4184
▁relative	-9.41926
▁approximate	-9.41932
nough	-9.42015
▁actor	-9.42075
▁probabl	-9.4224
▁Art	-9.42435
ves	-9.42549
▁certain	-9.42682
▁NY	-9.42683
▁foot	-9.42704
▁Union	-9.42752
▁election	-9.42785
▁friend	-9.42802
▁piece	-9.42964
ade	-9.42992
ez	-9.42995
▁cost	-9.43039
▁fly	-9.4304
▁colon	-9.43097
▁immediate	-9.43108
achel	-9.43113
▁division	-9.43129
head	-9.43132
▁goals	-9.43159
▁additional	-9.433
ud	-9.43444
▁detail	-9.43541
▁display	-9.43543
▁depression	-9.43559
AF	-9.43561
▁might	-9.43566
▁movement	-9.43609
▁tri	-9.43755
▁winn	-9.43958
▁Pacific	-9.43964
▁Wheeler	-9.43964
▁beginning	-9.43976
▁earn	-9.4398
▁police	-9.44071
▁according	-9.44092
▁rate	-9.44151
▁resident	-9.44398
▁watch	-9.44403
▁food	-9.44408
▁2002	-9.44454
▁My	-9.44464
▁Sinc	-9.4454
▁189	-9.44608
▁express	-9.44702
▁type	-9.44804
▁daughter	-9.44828
▁injur	-9.44837
▁media	-9.44881
▁territor	-9.44917
▁training	-9.45
hi	-9.45042
▁room	-9.45138
ice	-9.45141
▁remov	-9.45261
▁tra	-9.45269
R	-9.45298
▁assign	-9.45302
fore	-9.45398
ep	-9.45631
oc	-9.45667
▁battalion	-9.45699
▁refus	-9.457
▁Film	-9.45701
▁chose	-9.458
▁stone	-9.45824
latter	-9.45832
▁model	-9.45916
▁fund	-9.45965
B	-9.46101
▁Jin	-9.46102
▁Catholic	-9.46138
▁annual	-9.46235
▁60	-9.46301
▁Law	-9.4632
▁Force	-9.46412
▁Award	-9.46427
▁coach	-9.46611
▁captur	-9.46829
▁Creek	-9.47021
▁president	-9.47023
go	-9.47059
ho	-9.47186
▁research	-9.4741
▁save	-9.4748
▁Light	-9.47504
▁forest	-9.47815
T	-9.47842
▁v	-9.4785
L	-9.48142
▁connect	-9.48201
▁round	-9.48265
▁poet	-9.48334
▁animal	-9.48361
▁futur	-9.48367
▁reference	-9.48371
▁soldier	-9.48371
tein	-9.48384
▁fleet	-9.48421
ney	-9.48558
rse	-9.48608
▁industr	-9.48796
▁Con	-9.4881
▁assist	-9.48861
▁Charles	-9.48934
▁forc	-9.49082
pa	-9.49088
▁associat	-9.49138
▁treat	-9.49222
95	-9.49244
j	-9.49262
▁better	-9.49275
▁Virgin	-9.49293
▁45	-9.4958
▁Scott	-9.49618
io	-9.49653
▁spen	-9.49698
▁secur	-9.49711
▁concern	-9.49718
▁boat	-9.49721
▁Route	-9.49721
▁culture	-9.49722
▁centre	-9.49729
▁practice	-9.49742
▁runn	-9.49772
▁describe	-9.50121
▁woman	-9.50175
▁Awards	-9.50204
▁Ho	-9.50247
▁188	-9.50285
illboard	-9.50349
▁serve	-9.50363
▁meeting	-9.50395
pole	-9.50455
▁Dan	-9.50496
▁Hai	-9.50633
▁heavi	-9.50634
iller	-9.50735
ble	-9.50758
once	-9.50791
▁personal	-9.51013
▁employ	-9.51066
▁tell	-9.51151
▁mass	-9.51589
▁grant	-9.51619
▁believe	-9.51644
▁Scot	-9.5166
▁Arab	-9.51723
▁Lad	-9.51845
▁beat	-9.52012
ffic	-9.52087
▁deep	-9.52088
▁critical	-9.52159
mer	-9.523
▁trade	-9.52326
back	-9.52399
▁1980	-9.52518
▁summer	-9.52538
▁advance	-9.52692
ng	-9.52753
W	-9.52784
▁bring	-9.5297
▁whe	-9.53066
▁chang	-9.53073
▁select	-9.5308
▁amount	-9.53128
▁rais	-9.53358
▁declar	-9.53368
nt	-9.53382
aught	-9.53394
▁broadcast	-9.5343
▁staff	-9.53435
▁damag	-9.53485
per	-9.53549
▁thing	-9.53761
V	-9.53786
▁double	-9.53904
▁compos	-9.53917
▁Mos	-9.54135
he	-9.54136
▁separate	-9.54152
▁birds	-9.54319
▁Olympic	-9.5438
▁birth	-9.54381
▁natural	-9.54406
play	-9.54412
▁anti	-9.54461
▁00	-9.54725
▁depict	-9.54733
▁Cra	-9.54745
▁musical	-9.54764
▁audience	-9.54859
▁private	-9.54865
▁Western	-9.54906
▁Yu	-9.5492
▁Car	-9.54932
▁radio	-9.54952
▁notes	-9.54978
▁mone	-9.55035
mar	-9.55149
▁80	-9.55211
▁Scientology	-9.5534
▁respective	-9.55382
▁commander	-9.55578
▁Tom	-9.55634
▁meet	-9.55641
▁conclud	-9.55823
▁deliver	-9.55823
▁tower	-9.55865
▁author	-9.56151
▁operat	-9.56252
▁throw	-9.56308
▁2016	-9.56308
▁Year	-9.56324
▁read	-9.56335
▁nature	-9.56799
▁actual	-9.56806
▁Association	-9.56808
▁market	-9.57206
▁Parliament	-9.57286
▁Under	-9.57331
msel	-9.57411
▁cm	-9.57727
▁Council	-9.57779
▁sequence	-9.57779
▁distance	-9.57779
▁Saint	-9.5778
▁collection	-9.5788
▁pair	-9.57896
ong	-9.58016
▁Lo	-9.58031
▁produce	-9.58045
▁progress	-9.58274
▁Ne	-9.58285
▁observ	-9.58288
▁38	-9.58436
▁screen	-9.58764
▁California	-9.58771
▁cyclone	-9.58776
▁breed	-9.58777
▁Galve	-9.58779
▁link	-9.58784
▁leav	-9.58864
▁press	-9.58884
hou	-9.58891
▁lines	-9.58903
mon	-9.58919
ier	-9.58955
ka	-9.59267
▁train	-9.59282
▁education	-9.59294
▁Battle	-9.5932
▁Lake	-9.59326
▁187	-9.5936
llo	-9.59608
▁access	-9.59676
▁TV	-9.59753
▁primar	-9.59768
▁Croatia	-9.59774
▁Earth	-9.59775
▁Jewish	-9.59797
▁1950	-9.59817
led	-9.59871
▁sell	-9.59944
alway	-9.60082
ard	-9.60109
ling	-9.6019
▁inspir	-9.60217
▁Prince	-9.60279
▁concept	-9.60279
▁parent	-9.60284
▁adopt	-9.60288
▁Jane	-9.60517
▁Ross	-9.60529
▁fac	-9.60554
▁states	-9.60669
well	-9.60671
▁Los	-9.60701
▁commission	-9.60787
▁question	-9.60787
▁Wood	-9.60795
▁occur	-9.60795
▁color	-9.60821
▁traditional	-9.60848
▁ran	-9.6089
▁rare	-9.60902
▁reduc	-9.60995
ni	-9.6135
▁names	-9.61376
▁elect	-9.61535
ML	-9.61618
ap	-9.61695
▁distribut	-9.61718
▁keep	-9.61726
venue	-9.61768
▁dead	-9.61797
▁lyrics	-9.61811
Station	-9.61916
▁Brad	-9.61981
▁plac	-9.61996
▁Play	-9.62001
▁Jon	-9.62012
▁meaning	-9.6203
nis	-9.62068
▁Final	-9.62288
▁brief	-9.62325
▁decade	-9.62338
▁miss	-9.62352
▁organization	-9.62383
ip	-9.62469
▁36	-9.62525
RA	-9.62534
▁Han	-9.62561
▁tradition	-9.62783
▁guitar	-9.6282
▁Latin	-9.62844
▁sister	-9.62851
▁Beyon	-9.62859
▁Super	-9.62932
▁effective	-9.62987
▁184	-9.63012
▁litera	-9.63105
▁Vi	-9.63215
▁prior	-9.63226
▁historical	-9.63259
▁Mu	-9.63319
▁metal	-9.63345
▁block	-9.63383
▁situation	-9.63401
O	-9.63461
▁statu	-9.63595
▁mission	-9.63715
▁equip	-9.63888
▁marriage	-9.63927
▁try	-9.63965
▁wor	-9.64087
▁g	-9.6415
▁share	-9.64158
▁183	-9.642
▁universit	-9.64315
▁participat	-9.64414
▁Frank	-9.64436
▁course	-9.64527
▁Pro	-9.64604
▁singer	-9.6468
▁defend	-9.64714
▁wing	-9.64917
▁Chicago	-9.64943
▁script	-9.64943
stream	-9.64943
▁our	-9.64984
▁Hu	-9.65181
rang	-9.6534
ire	-9.65401
▁job	-9.65477
U	-9.65487
▁carri	-9.65505
▁1940	-9.6551
▁Angel	-9.65574
▁Am	-9.65674
▁Bri	-9.65734
ington	-9.65825
▁plant	-9.65892
▁Up	-9.65928
▁marri	-9.65975
▁historian	-9.66085
truck	-9.66101
▁via	-9.66121
old	-9.66174
▁Mr	-9.66506
▁Service	-9.66547
▁defence	-9.66547
▁girl	-9.66547
▁batter	-9.66624
▁minor	-9.66874
▁Fort	-9.6694
▁edge	-9.67006
hester	-9.67067
▁newspaper	-9.67088
▁request	-9.67088
▁sexual	-9.67091
▁Over	-9.6716
fer	-9.67162
▁painting	-9.67226
▁Nation	-9.67232
▁Don	-9.67334
▁theme	-9.67412
▁combin	-9.67569
▁tournament	-9.67633
▁Meyer	-9.67637
▁Simon	-9.67644
▁1930	-9.67666
▁cause	-9.67868
▁clos	-9.67972
▁Second	-9.68178
▁border	-9.68178
▁Alkan	-9.68178
▁variet	-9.682
▁African	-9.68244
▁Can	-9.68254
▁1993	-9.68343
▁Blue	-9.6847
▁Span	-9.68499
stone	-9.68529
▁400	-9.68606
▁Liverpool	-9.68727
▁Nixon	-9.68727
▁serious	-9.68728
▁70	-9.6876
▁Turk	-9.6879
lone	-9.68815
▁Land	-9.68849
▁protest	-9.68874
▁High	-9.68915
▁Gul	-9.68946
ground	-9.68948
▁discuss	-9.69157
tan	-9.6916
▁rapid	-9.6928
▁Alic	-9.69323
time	-9.69556
ze	-9.696
▁whole	-9.69694
▁Record	-9.69746
▁Min	-9.69809
▁mount	-9.69825
▁Texas	-9.69835
▁Christmas	-9.69836
▁got	-9.69935
▁key	-9.69975
▁build	-9.70084
ett	-9.70125
▁Tay	-9.70143
usch	-9.70241
▁numer	-9.70395
▁moment	-9.70395
▁reject	-9.70403
▁upper	-9.70482
▁Tour	-9.70528
▁Sever	-9.70793
▁search	-9.70957
▁speak	-9.70958
▁Fowle	-9.70963
▁mountain	-9.70975
▁thick	-9.71076
▁75	-9.71141
▁stat	-9.7118
▁scale	-9.71212
over	-9.71318
G	-9.71445
▁rating	-9.71497
▁Squadron	-9.71521
▁conflict	-9.71521
▁temple	-9.71521
▁reflect	-9.71521
▁Three	-9.71521
▁plot	-9.71521
▁Italian	-9.71537
lub	-9.71631
▁1996	-9.71719
▁Live	-9.7178
▁giv	-9.71792
▁Bow	-9.71888
▁drive	-9.7193
▁Republic	-9.72015
▁avoid	-9.72089
▁native	-9.72089
▁cathedral	-9.72101
▁kind	-9.72173
▁Mar	-9.72216
▁Pri	-9.72327
▁active	-9.72406
▁Gu	-9.7242
▁Har	-9.72511
▁organiz	-9.72628
▁parts	-9.72657
▁po	-9.72659
▁abandon	-9.7266
▁potential	-9.7266
▁fruit	-9.7266
▁Carolina	-9.72664
▁health	-9.72679
▁pay	-9.72735
▁tail	-9.72736
cé	-9.72779
▁abilit	-9.72831
▁Tenn	-9.72896
▁Pe	-9.73028
▁Ke	-9.73071
▁nation	-9.73177
ifi	-9.73185
▁oppos	-9.73201
▁withdraw	-9.73236
▁dollar	-9.7325
ado	-9.73328
▁fir	-9.73345
▁ever	-9.73381
▁300	-9.73386
▁couple	-9.73447
ger	-9.73487
▁slight	-9.73547
▁Ar	-9.7357
▁marked	-9.73597
ped	-9.73686
▁box	-9.73736
▁makes	-9.73821
▁Minne	-9.73859
▁Col	-9.7389
ius	-9.7424
ile	-9.74355
▁demand	-9.74396
▁dark	-9.74405
▁path	-9.74416
▁speed	-9.74429
▁Like	-9.74439
▁flow	-9.74452
▁Sho	-9.74477
kin	-9.74538
TV	-9.74547
▁bodie	-9.74562
▁Infantry	-9.74575
▁canno	-9.74694
▁Paris	-9.74777
▁Storm	-9.74874
ex	-9.74934
▁meant	-9.74935
▁method	-9.74943
▁Soviet	-9.74979
▁husband	-9.74979
▁adult	-9.74982
▁argu	-9.75039
▁Common	-9.75058
apo	-9.75105
▁Na	-9.7515
▁Oma	-9.75164
tention	-9.75168
▁bridge	-9.75223
▁era	-9.75417
val	-9.75499
▁College	-9.75567
▁headquarter	-9.75567
▁credit	-9.75568
▁expand	-9.75568
▁frequent	-9.75572
▁Series	-9.75574
20	-9.75575
▁paper	-9.75642
NA	-9.75687
yet	-9.75705
▁blue	-9.7573
▁Water	-9.75768
▁90	-9.75776
▁ending	-9.75929
▁seat	-9.76054
▁McC	-9.76102
▁Rosebery	-9.76159
▁Anderson	-9.7616
▁qualit	-9.7616
▁dedicat	-9.76161
▁wound	-9.7617
▁Cross	-9.76254
▁propert	-9.76307
▁Bob	-9.76472
CE	-9.76493
ank	-9.76587
onto	-9.76611
▁fort	-9.76695
▁Pennsylvania	-9.76754
▁function	-9.76757
▁Je	-9.76773
▁sentence	-9.76788
▁presen	-9.77071
▁hero	-9.77159
ious	-9.77213
▁contribut	-9.77227
tra	-9.77285
▁Mag	-9.77344
▁Dj	-9.7735
▁hundred	-9.77353
▁weapon	-9.77353
▁piano	-9.77353
▁complex	-9.77357
▁copie	-9.77361
▁Nicol	-9.77378
▁capture	-9.77629
▁Hol	-9.77769
var	-9.77812
ose	-9.77825
▁Ottoman	-9.77956
▁settlement	-9.77956
▁murder	-9.77956
▁morning	-9.77965
▁trip	-9.78046
▁1997	-9.78111
í	-9.78164
10	-9.78201
▁du	-9.7846
▁Si	-9.7851
▁Museum	-9.78562
▁enjoy	-9.78562
▁safe	-9.78583
▁park	-9.78588
▁Open	-9.7862
ric	-9.78641
▁Six	-9.78648
▁dat	-9.78864
▁collect	-9.78898
▁refer	-9.79029
▁object	-9.79098
▁brigade	-9.79171
▁target	-9.79171
▁Jackson	-9.79254
▁determin	-9.79359
▁Stan	-9.79649
▁compani	-9.79672
▁strength	-9.7972
▁Ge	-9.79734
▁text	-9.79737
▁Major	-9.79785
▁Through	-9.79785
▁impact	-9.79787
ner	-9.79798
house	-9.79806
▁Boy	-9.79973
ib	-9.8005
▁Sha	-9.80079
60	-9.8019
admi	-9.80251
done	-9.80348
▁confirm	-9.80402
▁disease	-9.80402
▁talk	-9.80403
▁wave	-9.80404
▁Ben	-9.80463
▁Age	-9.80566
▁portion	-9.80629
▁fill	-9.80641
▁Bill	-9.80713
▁En	-9.80754
▁fell	-9.80817
▁32	-9.80876
▁aspect	-9.80999
▁hospital	-9.81023
▁distinct	-9.81023
▁enem	-9.8103
▁powerful	-9.81066
▁Kan	-9.81091
▁Phil	-9.81135
▁self	-9.81251
▁twi	-9.81257
▁Sir	-9.81413
ular	-9.81446
▁33	-9.81501
ena	-9.81531
▁vocals	-9.81577
▁Queen	-9.81594
▁Jam	-9.81601
ker	-9.81644
▁recover	-9.81649
▁Chris	-9.81794
▁countr	-9.81795
▁bill	-9.82044
▁percent	-9.82276
▁northwest	-9.82277
▁Somali	-9.82277
▁Academ	-9.82278
▁temperature	-9.82279
▁cricket	-9.82286
▁edition	-9.82507
▁Georgia	-9.82662
ray	-9.82697
▁intens	-9.8274
▁responsib	-9.82906
▁degree	-9.8291
▁purpose	-9.8291
hann	-9.82914
▁Operation	-9.82914
▁Jose	-9.82952
▁lot	-9.82969
▁middl	-9.83032
res	-9.83174
▁don	-9.83175
▁Kh	-9.83334
uff	-9.83372
▁involve	-9.83382
▁value	-9.83409
▁feel	-9.83445
epartment	-9.83514
ight	-9.83525
▁advantage	-9.83547
▁touchdown	-9.83547
▁Court	-9.83548
▁normal	-9.83565
▁Helm	-9.83567
take	-9.83668
MS	-9.83747
▁Marine	-9.83759
▁Bru	-9.83779
xen	-9.83785
▁genu	-9.83798
▁achiev	-9.83851
▁indicat	-9.83954
▁los	-9.83994
▁cla	-9.84025
▁Chart	-9.84063
▁direction	-9.84116
ootball	-9.84142
▁document	-9.84169
▁Braathen	-9.84188
▁reception	-9.84202
tory	-9.84275
▁bird	-9.84281
rie	-9.84286
▁promotion	-9.84289
▁Ju	-9.84509
port	-9.84564
▁Par	-9.84649
▁Center	-9.84834
▁relief	-9.84836
▁Louis	-9.84845
▁attract	-9.84845
▁Green	-9.8486
▁pick	-9.84876
▁Horse	-9.84881
▁1994	-9.85024
ide	-9.85027
▁surviv	-9.85078
▁fish	-9.8511
▁content	-9.85121
▁physical	-9.85144
▁eye	-9.85242
erry	-9.85353
▁performances	-9.85353
▁draft	-9.85483
▁honor	-9.85483
▁engine	-9.855
▁Egyptian	-9.85501
▁Highway	-9.85504
▁factor	-9.85561
▁Corps	-9.85583
gue	-9.8566
▁Tess	-9.85697
▁publication	-9.8573
▁movie	-9.85901
▁nest	-9.85916
eath	-9.8607
▁defense	-9.86136
▁extreme	-9.86137
▁societ	-9.86137
▁jump	-9.86139
wis	-9.86142
true	-9.86162
meter	-9.86175
inkel	-9.86193
▁Sch	-9.86422
▁Cal	-9.86683
▁hop	-9.86706
▁sense	-9.86799
▁divid	-9.8681
▁Young	-9.86823
▁pop	-9.86824
ond	-9.86882
▁contemporary	-9.86983
▁Ex	-9.87068
▁severe	-9.87095
15	-9.87118
▁Wel	-9.87133
▁super	-9.87136
rew	-9.87164
▁Nes	-9.87215
▁trial	-9.87259
▁facilit	-9.87272
▁polic	-9.87331
where	-9.87344
▁managed	-9.87398
▁improv	-9.87417
gar	-9.87426
▁Smith	-9.8746
▁financial	-9.87462
▁39	-9.87493
▁weaken	-9.87499
▁comed	-9.87501
ville	-9.87503
▁criticiz	-9.87524
▁la	-9.87564
▁Hot	-9.87616
▁ultimate	-9.87642
▁landing	-9.87712
▁planet	-9.87761
hiva	-9.87873
osaur	-9.87947
▁Ed	-9.88058
▁cougar	-9.88123
▁Middle	-9.88123
wealth	-9.88135
▁analys	-9.88158
▁bad	-9.88195
▁measure	-9.88196
light	-9.88198
▁Long	-9.88215
orough	-9.8822
▁Ru	-9.88459
▁issu	-9.88465
▁simpl	-9.88499
drew	-9.88517
▁Van	-9.88579
▁Eva	-9.88694
▁Towns	-9.88699
▁blood	-9.88794
▁opportunit	-9.88794
▁Critic	-9.88794
▁dress	-9.88797
▁Pu	-9.88817
▁contrast	-9.88819
▁background	-9.88866
▁label	-9.88873
▁carry	-9.88873
hip	-9.88887
▁legal	-9.88896
▁shell	-9.89035
▁Mon	-9.89038
▁disc	-9.89139
▁care	-9.89247
▁47	-9.8928
▁friends	-9.89286
mpire	-9.89415
▁technique	-9.8947
▁Society	-9.89472
▁Games	-9.89534
▁economic	-9.89693
▁opera	-9.89732
▁deit	-9.89745
▁identifi	-9.89839
▁Per	-9.89886
▁mile	-9.89916
▁books	-9.89946
78	-9.90056
▁assault	-9.9015
▁arch	-9.90159
▁Hamel	-9.90178
▁reaction	-9.90186
▁hair	-9.90187
▁primari	-9.90221
Mont	-9.90272
▁dropp	-9.90307
▁northeast	-9.90476
ack	-9.90485
▁street	-9.90529
▁receive	-9.9053
▁Of	-9.90551
ov	-9.90552
▁coin	-9.90574
▁AI	-9.90676
pp	-9.90728
▁Government	-9.90835
▁brown	-9.90835
▁specimen	-9.90835
▁vehicle	-9.90835
▁website	-9.90835
▁rise	-9.90839
▁matter	-9.90845
▁sport	-9.90888
▁grand	-9.90922
▁Jim	-9.90948
rnia	-9.91009
whil	-9.91032
pos	-9.91135
mate	-9.91228
▁Del	-9.91237
eception	-9.91337
▁42	-9.91352
the	-9.9142
▁Gold	-9.91523
▁appeal	-9.91525
▁cultural	-9.91527
▁offensive	-9.91528
▁fear	-9.91531
▁soundtrack	-9.91556
hood	-9.91571
▁nav	-9.91589
▁surrounding	-9.91594
bitt	-9.91777
ki	-9.91815
▁190	-9.91888
scar	-9.91988
▁worker	-9.91997
▁rear	-9.92076
▁Wa	-9.92101
▁Illinois	-9.92219
▁volume	-9.92219
▁royal	-9.9222
bury	-9.92224
▁task	-9.92228
▁combat	-9.92244
▁master	-9.92324
▁transferr	-9.92354
▁transit	-9.92434
▁board	-9.92677
▁Not	-9.92697
▁appearances	-9.92715
▁Tele	-9.92799
▁Captain	-9.92918
▁respond	-9.92918
▁instrument	-9.92919
▁square	-9.92919
▁violen	-9.92934
han	-9.92951
▁energ	-9.93021
▁fiction	-9.93357
▁44	-9.93446
ug	-9.93515
▁Stor	-9.93602
▁crowd	-9.93623
▁thousand	-9.93623
▁colour	-9.93623
▁composition	-9.93629
▁Edward	-9.93637
▁prominent	-9.93682
▁twent	-9.9378
▁wear	-9.93785
inches	-9.93793
▁Fey	-9.93816
▁Bro	-9.93849
▁Cor	-9.93873
▁Sal	-9.93927
ncy	-9.93948
cer	-9.94051
slo	-9.94115
98	-9.94143
▁memor	-9.94187
ook	-9.94199
▁aid	-9.9428
▁Civil	-9.94332
▁rival	-9.94332
▁Though	-9.94333
▁push	-9.94333
▁session	-9.94333
▁Com	-9.9436
▁Mountain	-9.94363
ber	-9.94378
▁150	-9.94458
fantry	-9.94498
▁Home	-9.9464
ub	-9.94723
▁advanc	-9.94736
lock	-9.94784
▁leader	-9.94997
▁Clark	-9.95046
▁science	-9.95046
▁Spain	-9.95047
▁extensive	-9.95048
kovic	-9.95053
▁Free	-9.95071
▁fast	-9.95076
etic	-9.95094
BA	-9.95102
▁winter	-9.95111
▁Portug	-9.95194
▁Balti	-9.95232
▁51	-9.95383
▁Ta	-9.95418
▁portray	-9.95509
ible	-9.95528
hap	-9.9564
og	-9.95693
right	-9.95756
▁Ocean	-9.95766
▁print	-9.95766
▁retain	-9.95767
▁Group	-9.9577
▁rough	-9.95773
▁iron	-9.9585
▁Jo	-9.96109
intin	-9.96274
▁habitat	-9.96313
▁Gar	-9.96389
▁threat	-9.96426
▁Cre	-9.96438
▁archaeolog	-9.96468
▁Little	-9.9649
▁Varanasi	-9.9649
▁succeed	-9.9649
▁Secret	-9.9649
▁walk	-9.96492
▁description	-9.96508
▁window	-9.96518
shire	-9.96575
▁ti	-9.96708
▁independent	-9.9677
▁Israel	-9.96808
ux	-9.96867
▁sales	-9.96974
▁Lord	-9.97038
▁owner	-9.97056
dom	-9.97069
▁heart	-9.97204
▁approv	-9.97221
▁Studio	-9.97223
▁casualties	-9.97223
▁Apple	-9.97258
▁Andrew	-9.97266
lan	-9.97446
▁designat	-9.97618
▁defin	-9.97618
▁sex	-9.97694
ncient	-9.97782
▁stand	-9.97853
▁viewers	-9.97869
lie	-9.97937
▁computer	-9.97956
▁remark	-9.97956
▁reign	-9.97956
▁domestic	-9.97959
▁Ceres	-9.97966
▁acid	-9.97974
▁boy	-9.98035
oul	-9.98088
69	-9.98121
▁prov	-9.98124
▁reviewer	-9.9823
▁Manc	-9.98376
▁Easter	-9.98524
▁except	-9.98571
▁maximu	-9.98696
▁ceremon	-9.98696
▁championship	-9.98708
▁1920	-9.98764
ssembl	-9.98825
hang	-9.98832
kak	-9.98893
▁Book	-9.99018
union	-9.99053
▁tracks	-9.9907
án	-9.99126
▁180	-9.99312
▁controll	-9.99327
▁agent	-9.99389
▁Engineer	-9.99442
▁Simpson	-9.99442
▁sustain	-9.99442
▁captain	-9.99443
▁risk	-9.99443
▁Perón	-9.99444
▁rush	-9.99446
▁phase	-9.99447
▁entrance	-9.99466
▁186	-9.99523
▁product	-9.99534
▁34	-9.99659
▁182	-9.99691
▁matche	-9.99808
▁Sta	-9.99817
mond	-9.99842
awa	-9.99845
hur	-9.99885
▁Gi	-9.99887
▁standing	-9.99915
▁basi	-9.9995
▁escape	-10.0003
▁Thunderbird	-10.0019
▁Wilhelm	-10.0019
▁pilot	-10.0019
▁Mogadis	-10.0019
▁Week	-10.002
▁apparent	-10.002
▁chapter	-10.002
▁Master	-10.0028
▁Lock	-10.0032
▁spread	-10.0033
▁Ven	-10.0042
▁indicate	-10.0048
▁Pop	-10.0053
▁item	-10.0062
ition	-10.0069
▁nominat	-10.0083
▁stop	-10.009
▁Washington	-10.0095
▁monument	-10.0095
▁opponent	-10.0095
▁torpedo	-10.0095
▁chief	-10.0095
▁technolog	-10.0095
▁frame	-10.0095
▁delay	-10.0098
▁happen	-10.01
▁hands	-10.0109
▁52	-10.011
▁SR	-10.0112
wide	-10.013
▁Men	-10.0151
hol	-10.0155
▁Victoria	-10.0159
▁feeling	-10.0166
▁Steve	-10.0167
▁yellow	-10.0172
▁Four	-10.0172
▁narrow	-10.0173
▁convert	-10.0173
▁Night	-10.0175
▁Town	-10.018
▁1988	-10.0181
▁partial	-10.0193
▁Post	-10.0199
▁types	-10.0201
▁Torre	-10.0205
▁Ali	-10.0206
▁Qu	-10.0208
▁contact	-10.0249
▁failure	-10.0251
we	-10.0252
▁Stone	-10.0257
▁inning	-10.026
▁bit	-10.0274
▁Ber	-10.0276
ulat	-10.028
▁Low	-10.0285
za	-10.0287
67	-10.029
▁fur	-10.029
white	-10.0293
▁bid	-10.0295
vin	-10.032
▁acquir	-10.0326
▁Fleet	-10.0326
50	-10.0328
▁starling	-10.0329
▁editor	-10.0331
▁institution	-10.0345
▁height	-10.0352
▁Charl	-10.0353
▁Line	-10.0363
▁Pres	-10.0366
ock	-10.0366
▁necessar	-10.0368
berg	-10.0376
rap	-10.0399
▁Mac	-10.0402
▁council	-10.0404
▁pattern	-10.0404
▁flank	-10.0404
▁acre	-10.041
▁Ram	-10.0417
igan	-10.0421
▁Mean	-10.0422
▁Even	-10.0422
▁core	-10.0462
laba	-10.0475
▁Have	-10.048
▁athlete	-10.0483
▁dominat	-10.0483
▁district	-10.0485
fort	-10.0496
▁themes	-10.0509
▁require	-10.0518
AA	-10.0521
▁Mont	-10.0527
ana	-10.0531
▁formation	-10.0537
▁Tri	-10.0543
▁Way	-10.0553
▁secret	-10.0557
▁your	-10.0561
▁Independen	-10.0562
▁dissipat	-10.0562
▁unique	-10.0562
▁understand	-10.0562
▁Asia	-10.0562
▁Airport	-10.0563
▁branch	-10.0564
kept	-10.0564
▁semi	-10.0564
▁storyline	-10.0569
▁37	-10.057
▁raid	-10.0572
ew	-10.0572
ec	-10.058
▁More	-10.0586
▁Fin	-10.0589
▁Bir	-10.0589
▁Wil	-10.0592
▁Un	-10.0593
zy	-10.0594
▁Command	-10.0602
▁Max	-10.0608
▁promot	-10.0622
▁Ever	-10.0629
expected	-10.0633
▁inform	-10.0636
▁Brita	-10.0637
awn	-10.0642
▁Commission	-10.0642
▁Jupiter	-10.0642
▁religion	-10.0642
▁defensi	-10.0642
▁Abu	-10.0643
▁Bridge	-10.0644
▁desire	-10.0644
▁multipl	-10.0653
istic	-10.0674
▁engineer	-10.068
▁MD	-10.0681
▁Kent	-10.0686
nonymous	-10.0719
▁assembl	-10.0719
▁peace	-10.0722
▁compound	-10.0723
▁occupie	-10.0723
▁supplie	-10.0723
▁southwest	-10.0723
▁depth	-10.0723
▁Short	-10.0723
▁guest	-10.0724
▁management	-10.0727
▁bank	-10.0728
▁comic	-10.0733
89	-10.074
▁federa	-10.0743
▁occasional	-10.0744
▁castle	-10.0755
▁mind	-10.0755
▁Big	-10.0773
sis	-10.078
▁medic	-10.0781
vert	-10.0795
▁depend	-10.0803
▁consecutive	-10.0804
▁museum	-10.0804
▁Greek	-10.0804
delphi	-10.0805
tial	-10.0814
▁nomination	-10.0818
▁belong	-10.0818
▁musician	-10.0821
▁stopp	-10.0827
▁wild	-10.0827
ake	-10.0829
▁Nat	-10.0833
▁Forest	-10.0836
▁spot	-10.0854
ural	-10.0857
▁negative	-10.0886
▁permanent	-10.0886
▁vessel	-10.0886
▁visual	-10.0886
▁Guard	-10.0887
kare	-10.0894
▁deriv	-10.0895
▁48	-10.0897
▁classic	-10.0905
▁lane	-10.0908
don	-10.0913
▁Lu	-10.0922
pper	-10.0941
lli	-10.0945
▁step	-10.0951
▁dut	-10.0956
▁radi	-10.0958
oise	-10.0964
▁obtain	-10.0969
▁Writ	-10.0969
▁orbit	-10.0969
▁solo	-10.0969
▁foreign	-10.0971
▁airport	-10.0972
▁opinion	-10.0973
▁origin	-10.0977
ink	-10.0983
▁store	-10.0985
▁Dam	-10.0993
▁fung	-10.0996
▁mine	-10.1
older	-10.1003
▁Bol	-10.1013
▁buri	-10.1028
kg	-10.1031
▁retir	-10.1044
▁respect	-10.1048
▁DVD	-10.1052
▁Institute	-10.1052
▁Science	-10.1052
▁floor	-10.1052
▁dismiss	-10.1052
▁detect	-10.1052
▁perfect	-10.1053
▁j	-10.1057
▁executive	-10.1058
▁else	-10.1059
▁threaten	-10.106
▁trad	-10.1071
▁Horn	-10.1077
qui	-10.1087
▁creation	-10.1102
▁armor	-10.1102
30	-10.111
▁emerg	-10.1115
ersonnel	-10.1117
idden	-10.1126
▁encounter	-10.1136
▁incident	-10.1136
▁parliament	-10.1136
▁kick	-10.1137
▁Mc	-10.1138
▁Mich	-10.1143
yard	-10.12
▁die	-10.1217
▁broad	-10.1221
ama	-10.1221
▁remix	-10.1221
▁spoke	-10.1221
▁recogniz	-10.1222
air	-10.1223
▁oil	-10.1227
▁bowl	-10.1239
▁Cam	-10.1243
▁page	-10.1246
▁weight	-10.1246
▁feed	-10.1248
▁beach	-10.1258
▁seek	-10.1258
▁Mik	-10.126
let	-10.1262
▁door	-10.1275
▁civil	-10.1304
▁decline	-10.1305
▁invasion	-10.1306
▁Child	-10.1307
▁49	-10.1313
▁assum	-10.1316
▁generat	-10.1325
▁Rich	-10.1328
terra	-10.1329
▁181	-10.1333
IA	-10.1334
▁spring	-10.1346
▁Due	-10.1364
sses	-10.1366
▁farm	-10.1374
qua	-10.1377
▁Tu	-10.138
knowledge	-10.1387
ging	-10.1387
▁famous	-10.1393
▁Further	-10.1393
▁tank	-10.1398
▁freeway	-10.1399
von	-10.1401
▁treatment	-10.1401
▁hill	-10.1401
▁campus	-10.1409
▁Jain	-10.1413
▁1972	-10.1416
▁association	-10.1417
▁rul	-10.142
▁miner	-10.1422
▁statement	-10.1423
come	-10.1425
0	-10.1427
▁spin	-10.1429
▁imp	-10.1447
▁titles	-10.1451
▁finding	-10.1455
▁chance	-10.1462
shore	-10.1467
laid	-10.1471
▁Speci	-10.1479
▁sculpture	-10.148
▁Sky	-10.1481
▁Good	-10.1484
▁tomb	-10.1491
▁1985	-10.1492
▁Minister	-10.1494
▁quit	-10.1501
▁Mill	-10.1502
▁teacher	-10.1508
▁mouth	-10.1509
▁trans	-10.1543
▁teaching	-10.1544
put	-10.1547
▁address	-10.1553
▁53	-10.1557
▁settl	-10.1562
▁spend	-10.1563
▁Mega	-10.1563
▁Cardiff	-10.1567
▁accompani	-10.1567
▁Field	-10.1567
▁resign	-10.1567
▁Heart	-10.1568
oot	-10.157
▁Bur	-10.157
ame	-10.1571
▁trail	-10.1572
▁Barrow	-10.1572
ji	-10.1574
aged	-10.1581
▁fine	-10.1584
ackground	-10.16
eval	-10.1605
▁NC	-10.1615
▁shoot	-10.1624
▁Nu	-10.1643
▁invit	-10.1653
▁Public	-10.1656
▁gradual	-10.1656
▁shift	-10.1656
▁arrest	-10.1656
▁recall	-10.1656
▁chair	-10.1656
▁channel	-10.1658
▁lea	-10.1658
▁Che	-10.1661
▁engag	-10.1662
▁Cole	-10.1664
▁organ	-10.1664
gun	-10.1664
▁bi	-10.1672
▁1944	-10.1672
azz	-10.1674
▁operate	-10.168
▁Ox	-10.1681
▁destroyer	-10.1684
▁Keat	-10.1692
▁criticism	-10.1696
▁120	-10.1697
▁FA	-10.1701
sky	-10.1716
▁Base	-10.1718
▁symbol	-10.172
adi	-10.1721
▁extra	-10.1732
rom	-10.1733
▁Op	-10.1736
▁adapt	-10.1739
▁champion	-10.1744
▁kilometre	-10.1745
▁Video	-10.1745
▁Bull	-10.1745
▁fox	-10.1745
▁weather	-10.1747
▁civilian	-10.1748
▁strengthen	-10.1754
▁exception	-10.176
aven	-10.1776
▁dance	-10.1783
▁folk	-10.1788
ev	-10.1803
▁Radi	-10.1804
▁Never	-10.1807
▁tend	-10.1815
▁Mur	-10.1826
tro	-10.1828
▁64	-10.1828
▁bone	-10.1834
▁Additional	-10.1835
▁Morris	-10.1835
▁possibilit	-10.1835
▁Album	-10.1835
▁Dutch	-10.1835
▁eliminat	-10.1835
▁strip	-10.1835
▁divine	-10.1836
ette	-10.184
▁wh	-10.184
▁vocal	-10.1843
▁Son	-10.1847
▁Tor	-10.1848
▁Kai	-10.1862
▁agreement	-10.1873
▁foundation	-10.1906
▁mu	-10.1916
▁sand	-10.1918
▁Festival	-10.1926
▁Premier	-10.1926
▁budget	-10.1926
▁Congress	-10.1926
▁belief	-10.1926
▁firm	-10.1926
▁debate	-10.1927
▁inch	-10.1928
▁Nathan	-10.1928
crete	-10.1929
▁gre	-10.1939
X	-10.1941
▁killing	-10.1944
▁connection	-10.1952
▁Pi	-10.1954
bert	-10.196
▁Antho	-10.1967
▁cat	-10.1971
▁actress	-10.1973
▁antimon	-10.1975
▁lives	-10.1984
▁equal	-10.2002
ix	-10.2004
gas	-10.2013
onference	-10.2014
▁Egypt	-10.2015
▁straight	-10.2018
▁college	-10.2018
▁appli	-10.2018
▁moral	-10.2018
▁zone	-10.2019
▁declin	-10.2019
▁Martin	-10.2023
▁Sol	-10.2045
▁Juan	-10.2045
▁becom	-10.2055
31	-10.2067
▁multi	-10.207
▁guard	-10.2071
▁challenge	-10.2074
gi	-10.2078
▁occasion	-10.2086
▁medi	-10.2092
gie	-10.2106
▁hope	-10.2106
AS	-10.2106
▁column	-10.211
▁repair	-10.211
▁restaurant	-10.211
▁arrangement	-10.211
▁candidate	-10.2111
▁excavation	-10.2114
▁hat	-10.2115
▁highlight	-10.2117
▁Gord	-10.2117
12	-10.2131
87	-10.2145
▁wood	-10.2146
▁data	-10.2147
▁separat	-10.2155
ept	-10.2161
▁schedul	-10.2163
▁handl	-10.2191
ah	-10.2203
▁agricultur	-10.2204
▁choice	-10.2204
▁inscription	-10.2204
▁photograph	-10.2204
▁clean	-10.2205
▁difference	-10.2205
▁Jeff	-10.2206
▁End	-10.2206
▁Lewis	-10.2207
▁fun	-10.2208
▁prepared	-10.221
▁catch	-10.2215
▁observation	-10.2216
▁1981	-10.2225
▁gene	-10.2238
▁big	-10.2251
nder	-10.2251
▁Mario	-10.2253
▁mark	-10.2267
▁counter	-10.2273
▁recommend	-10.2292
ieutenant	-10.2298
▁Cardinal	-10.2298
▁philosoph	-10.2298
▁Production	-10.2299
▁Among	-10.23
▁rebel	-10.2302
▁option	-10.2304
vita	-10.2305
▁tactic	-10.2305
▁syn	-10.2306
▁setting	-10.231
▁simple	-10.2316
▁passage	-10.2318
▁sw	-10.2321
iro	-10.2321
▁fit	-10.2323
▁deni	-10.2336
▁Original	-10.234
▁send	-10.2346
▁tie	-10.2348
▁hir	-10.2349
▁entr	-10.2349
▁Pra	-10.2359
▁Hart	-10.2362
nna	-10.2362
▁Te	-10.2371
lton	-10.239
▁People	-10.2393
▁victim	-10.2393
▁1939	-10.2393
▁article	-10.2393
▁Slam	-10.2394
▁prompt	-10.2394
▁crime	-10.2394
ā	-10.2394
▁Rome	-10.2396
▁grass	-10.2396
▁rail	-10.24
▁Review	-10.2402
▁plum	-10.2402
▁combination	-10.2404
pri	-10.2408
▁vote	-10.2411
▁Russian	-10.2417
▁Ital	-10.2418
▁gather	-10.2422
▁paint	-10.2435
tty	-10.245
▁pai	-10.246
itude	-10.2462
▁drop	-10.2471
▁transfer	-10.2472
▁reli	-10.2475
86	-10.2488
▁Revolution	-10.249
▁bottom	-10.249
▁Temple	-10.249
ttorney	-10.249
▁Girl	-10.249
▁silver	-10.249
▁proceed	-10.249
▁digital	-10.2491
rop	-10.2491
▁hotel	-10.2492
▁reform	-10.2492
▁intersection	-10.2496
▁Form	-10.2502
▁supply	-10.2508
▁sail	-10.2509
▁1942	-10.2512
▁ring	-10.2516
▁dai	-10.253
▁Dun	-10.2547
ual	-10.2549
ari	-10.2551
▁Jos	-10.2565
70	-10.2569
▁scholar	-10.2578
▁Entertainment	-10.2587
▁picture	-10.2587
▁1918	-10.2587
▁Fantas	-10.2587
▁Coast	-10.2587
▁Turner	-10.2587
▁unlike	-10.2587
▁committee	-10.2587
▁fresh	-10.2589
▁Director	-10.2591
▁Roll	-10.2591
▁spac	-10.2596
▁USA	-10.2599
▁Ch	-10.26
▁nor	-10.26
▁Ode	-10.2619
▁minim	-10.2623
▁Plan	-10.2626
gle	-10.2626
▁drawing	-10.2638
▁Bell	-10.2648
▁65	-10.265
▁Cle	-10.2653
ombat	-10.2656
▁130	-10.266
bridge	-10.2663
vision	-10.2669
▁vot	-10.2669
ret	-10.2678
era	-10.2678
▁Muslim	-10.2685
▁expedition	-10.2685
▁Bishop	-10.2685
▁message	-10.2685
▁penalt	-10.2685
▁minister	-10.2685
▁genre	-10.2687
▁verse	-10.269
▁batsm	-10.2691
▁objective	-10.2696
▁Famil	-10.2698
▁Area	-10.2702
▁1968	-10.2702
▁Chain	-10.2712
▁Cart	-10.2712
▁relation	-10.272
▁Maria	-10.2723
▁700	-10.2727
▁Emm	-10.2741
▁reader	-10.2755
▁Der	-10.2755
spread	-10.2769
▁demonstrat	-10.2771
▁centur	-10.2772
abilit	-10.2774
solution	-10.2779
vā	-10.2783
▁Governor	-10.2784
▁skill	-10.2784
▁termin	-10.2784
▁arrang	-10.2785
▁Norman	-10.2788
▁Joe	-10.2792
▁spore	-10.2795
▁1975	-10.2802
▁Mort	-10.2806
▁sole	-10.2808
▁circulat	-10.2809
▁hunt	-10.2812
▁Hal	-10.2813
▁Dis	-10.2815
▁stations	-10.2815
▁reserve	-10.2816
stock	-10.2838
▁Well	-10.2856
▁outer	-10.2857
▁replace	-10.2862
▁starr	-10.287
agazine	-10.2879
▁drama	-10.288
▁weak	-10.2881
▁System	-10.2884
▁drain	-10.2884
dream	-10.2884
▁tall	-10.2884
▁Baby	-10.2884
▁What	-10.2886
oid	-10.2888
▁Player	-10.2892
▁Gil	-10.2896
drum	-10.2897
▁Mari	-10.2901
▁Fish	-10.2901
▁Win	-10.2902
▁billion	-10.2904
▁winner	-10.2905
▁camera	-10.2905
58	-10.2909
▁formal	-10.2931
▁independen	-10.2946
atre	-10.2947
urban	-10.2951
oba	-10.2957
▁rescue	-10.2973
▁investigat	-10.2978
▁Khan	-10.2984
▁certifi	-10.2985
▁mushroom	-10.2985
▁principal	-10.2985
▁survey	-10.2985
▁unusual	-10.2985
▁retreat	-10.2985
▁convention	-10.2986
▁sector	-10.2987
▁Single	-10.2989
▁interaction	-10.299
▁43	-10.2992
ather	-10.2996
▁cave	-10.3007
▁Ko	-10.3009
▁boundar	-10.3011
▁Commander	-10.3016
olar	-10.302
▁fictional	-10.3023
lies	-10.3031
▁mode	-10.3037
oon	-10.3041
▁aim	-10.3047
▁sl	-10.3056
▁egg	-10.3067
▁govern	-10.3076
▁Dar	-10.3078
▁suit	-10.3085
▁Jurchen	-10.3087
▁MacLe	-10.3087
▁ritual	-10.3087
▁technical	-10.3087
▁Daniel	-10.3087
▁motion	-10.3087
▁Fox	-10.3087
▁attach	-10.3087
▁Life	-10.3087
ata	-10.3091
▁Key	-10.3091
▁56	-10.3091
▁emperor	-10.3091
▁row	-10.3093
water	-10.3098
▁Crown	-10.3101
▁generation	-10.3102
▁creator	-10.3122
oz	-10.3122
▁Medi	-10.3131
▁Fri	-10.3132
▁nuclea	-10.314
▁flat	-10.3159
▁tax	-10.3165
▁architectur	-10.3173
istrict	-10.3187
▁protagonist	-10.319
▁senior	-10.319
▁chorus	-10.319
▁adventure	-10.319
TC	-10.3192
▁communication	-10.3193
▁Williams	-10.3198
▁cool	-10.32
▁airline	-10.3205
▁Recording	-10.3206
▁Angl	-10.321
▁leaders	-10.3213
▁map	-10.3216
▁Far	-10.3218
11	-10.3233
▁800	-10.3246
evo	-10.3252
▁Alli	-10.3254
▁favor	-10.3256
▁skin	-10.3257
▁purchas	-10.3263
▁layer	-10.328
▁Dublin	-10.3294
▁flag	-10.3294
▁convinc	-10.3294
▁contest	-10.3294
▁Project	-10.3294
▁Bas	-10.3296
▁Track	-10.3297
▁Board	-10.3297
ult	-10.3299
▁Stra	-10.33
▁54	-10.3301
▁NH	-10.3303
▁Colon	-10.3312
▁soil	-10.3317
▁cruiser	-10.3322
burn	-10.3326
▁Carr	-10.3334
▁Mor	-10.3338
▁intention	-10.3344
▁Bart	-10.3363
ization	-10.3364
anna	-10.3398
#	-10.3399
▁administration	-10.3399
▁essential	-10.3399
▁pull	-10.3399
▁witness	-10.3399
▁1919	-10.3399
▁wait	-10.3399
▁split	-10.34
▁easi	-10.3403
▁Brook	-10.3404
pping	-10.3417
NL	-10.3422
▁Kang	-10.3423
▁Ham	-10.3429
▁Ann	-10.3438
table	-10.3438
▁Nor	-10.3451
▁Y	-10.3458
▁organis	-10.3464
ith	-10.3466
▁warm	-10.3472
▁preserv	-10.3474
▁decide	-10.3475
▁strike	-10.3482
▁biograph	-10.3484
▁classifi	-10.3492
90	-10.3492
▁accus	-10.3499
▁Athletic	-10.3506
▁stretch	-10.3506
▁passenger	-10.3506
▁representative	-10.3506
▁1936	-10.3506
▁platform	-10.3506
▁surge	-10.3506
▁57	-10.3509
▁holding	-10.3516
▁Marl	-10.3523
araj	-10.3532
ibi	-10.3554
wan	-10.3555
▁reduce	-10.3566
▁heard	-10.3581
▁Dai	-10.3594
07	-10.3609
▁legislat	-10.3612
▁regime	-10.3612
▁Work	-10.3613
▁Admiral	-10.3613
▁Constantin	-10.3613
▁Douglas	-10.3613
▁remnant	-10.3613
▁earthquake	-10.3613
▁fuel	-10.3613
▁priest	-10.3614
▁Thir	-10.3614
▁renam	-10.3614
▁Cant	-10.3615
ribbe	-10.3616
▁inde	-10.3617
▁Inter	-10.3618
▁para	-10.3619
▁green	-10.3621
▁possession	-10.3624
hal	-10.3625
▁massive	-10.363
▁atmosphere	-10.3636
▁Bana	-10.3639
▁Band	-10.3644
CA	-10.3647
▁Yan	-10.3648
AT	-10.3648
▁charter	-10.3655
DS	-10.3665
▁GA	-10.3666
pit	-10.3669
ctor	-10.3671
▁164	-10.3679
▁proposal	-10.3684
▁Fall	-10.3685
▁province	-10.3687
▁realis	-10.3691
▁passe	-10.3692
▁surround	-10.3711
▁Hop	-10.3715
AR	-10.3718
▁Committee	-10.3722
▁Iguanodon	-10.3722
▁exclusive	-10.3722
▁submarine	-10.3722
▁unsuccessful	-10.3722
▁sponsor	-10.3722
▁Power	-10.3722
▁Team	-10.3724
▁crop	-10.3726
▁southeast	-10.3732
▁settler	-10.3743
▁isolat	-10.3746
▁guide	-10.3759
oven	-10.3761
ore	-10.3766
jo	-10.3768
onica	-10.3774
▁Bosto	-10.3777
▁41	-10.3781
▁Sam	-10.3788
ich	-10.3792
evil	-10.3807
▁pen	-10.3812
pur	-10.3818
▁Rio	-10.3819
▁46	-10.3825
▁Democrat	-10.3832
▁distinguish	-10.3833
ecki	-10.3833
▁wedding	-10.3833
▁let	-10.3834
▁76	-10.3835
▁Sunday	-10.3837
▁reput	-10.3838
▁Golden	-10.3842
▁Walter	-10.3843
ax	-10.3843
▁1914	-10.3853
▁55	-10.3857
▁Bar	-10.3858
hor	-10.386
▁Rob	-10.386
▁nin	-10.3871
▁basin	-10.3874
▁Camp	-10.3879
▁Var	-10.3911
▁finds	-10.3914
▁measur	-10.3923
▁graph	-10.3925
▁impress	-10.3931
work	-10.3931
▁Aston	-10.3934
▁magn	-10.3938
▁eleven	-10.3943
▁Chelsea	-10.3943
▁chapel	-10.3943
▁parallel	-10.3943
▁correct	-10.3943
▁basket	-10.3943
▁interior	-10.3943
▁Prime	-10.3944
▁Roger	-10.3945
▁Albert	-10.3947
▁supposed	-10.3948
▁spell	-10.3949
▁Test	-10.3949
▁estate	-10.395
▁fellow	-10.3951
▁Milit	-10.3951
▁prove	-10.3953
▁Santa	-10.3953
▁Hindu	-10.3953
▁table	-10.3967
▁Columbia	-10.3967
glades	-10.3969
evelopment	-10.3975
▁successor	-10.3975
▁card	-10.3978
▁emotional	-10.3979
▁Kur	-10.3997
▁rid	-10.3997
ais	-10.4003
▁basic	-10.4015
▁econom	-10.4018
▁Industr	-10.4027
▁arc	-10.4038
ilit	-10.4043
ai	-10.4046
▁composer	-10.4051
▁Lis	-10.4054
▁fashion	-10.4055
▁trouble	-10.4055
▁predict	-10.4055
▁Summer	-10.4055
▁Hibari	-10.4055
▁About	-10.4055
rey	-10.4058
▁archaeologist	-10.4059
▁retire	-10.4066
ership	-10.4079
▁alter	-10.4082
ou	-10.4084
▁establishment	-10.4085
▁rich	-10.4091
▁96	-10.4092
▁shooting	-10.4096
attle	-10.4103
▁attribut	-10.4121
▁Row	-10.4122
▁Fra	-10.4124
▁sufficient	-10.4127
▁ches	-10.413
▁bear	-10.4139
▁Holly	-10.4154
▁illustrat	-10.4156
▁Francisc	-10.4161
▁install	-10.4164
▁deploy	-10.4164
▁prim	-10.4165
▁component	-10.4169
▁household	-10.4169
▁quot	-10.4169
▁twel	-10.4169
▁nurse	-10.4169
▁Friends	-10.4169
▁convoy	-10.4169
▁tunnel	-10.417
ruli	-10.417
▁journalist	-10.417
▁alien	-10.417
▁categor	-10.4171
▁Romani	-10.4174
▁stem	-10.4175
▁Rox	-10.4176
▁survive	-10.418
▁truth	-10.418
▁Perr	-10.4183
▁110	-10.4191
aff	-10.4191
Brien	-10.4192
▁1982	-10.4192
▁visitor	-10.4198
▁vision	-10.42
▁arrive	-10.4212
▁Da	-10.423
▁wish	-10.4252
duct	-10.4265
▁Wan	-10.4277
▁happ	-10.4278
▁repeated	-10.4279
▁Haiti	-10.428
ori	-10.4282
▁Out	-10.4283
▁calculat	-10.4284
▁evacuat	-10.4284
▁speech	-10.4284
▁roof	-10.4284
▁patrol	-10.4284
▁1913	-10.4284
▁1916	-10.4284
▁offense	-10.4284
▁Destin	-10.4284
▁attain	-10.4284
▁dispute	-10.4285
▁root	-10.4286
▁divers	-10.4288
▁Carl	-10.4288
▁grave	-10.429
▁carv	-10.4294
▁Howard	-10.4295
▁exit	-10.4295
nell	-10.4298
▁partner	-10.4298
▁Jesu	-10.4299
▁secure	-10.4305
body	-10.4318
▁graphic	-10.4334
fare	-10.4337
▁ray	-10.4339
rald	-10.4344
gé	-10.4347
▁Bond	-10.4357
▁driver	-10.4369
atu	-10.4369
▁Christ	-10.4377
▁Just	-10.4396
▁controvers	-10.4399
▁Brazil	-10.44
▁conservati	-10.44
▁exact	-10.44
▁Gwen	-10.44
▁panel	-10.44
▁load	-10.4402
▁Mad	-10.4402
▁predator	-10.4403
▁legend	-10.4404
▁Samu	-10.4408
▁governor	-10.4408
▁Sport	-10.4417
▁earth	-10.442
▁judge	-10.4421
▁Marc	-10.4421
▁1943	-10.4422
▁travell	-10.4429
iston	-10.443
▁Carol	-10.4431
▁struggle	-10.4437
hl	-10.4439
ía	-10.444
▁62	-10.4444
▁entit	-10.4451
▁CD	-10.4451
▁manufactur	-10.4454
▁Rose	-10.4461
▁Real	-10.4461
▁designation	-10.4468
▁Missi	-10.447
▁merg	-10.447
▁here	-10.4471
▁Fran	-10.4475
IG	-10.4491
chan	-10.4494
▁plane	-10.4496
bow	-10.4502
▁250	-10.4504
▁span	-10.4514
▁Spring	-10.4518
▁Dream	-10.4518
▁rifle	-10.4518
▁glass	-10.4518
▁pregnan	-10.4518
▁imagin	-10.4518
▁capacit	-10.4518
▁Rangers	-10.4518
▁download	-10.4518
▁exchange	-10.4519
▁academic	-10.452
▁Tro	-10.4522
▁variation	-10.4523
á	-10.4523
▁introduction	-10.4523
▁replacement	-10.4523
▁Stevens	-10.4526
▁scholars	-10.4529
tadium	-10.453
lash	-10.4535
east	-10.4537
▁Anti	-10.4551
▁Harr	-10.4551
pot	-10.4554
▁160	-10.4556
arian	-10.4558
▁soft	-10.4574
▁bab	-10.4583
▁Ry	-10.4587
win	-10.4591
nsa	-10.4593
▁encourag	-10.4602
▁Mal	-10.4616
▁Office	-10.4619
▁exhibit	-10.4624
▁61	-10.4633
▁Champion	-10.4635
▁Alexander	-10.4637
▁Conservat	-10.4637
▁Similar	-10.4637
▁substantial	-10.4637
▁sequel	-10.4637
▁constant	-10.4637
▁Archaeolog	-10.4637
▁charit	-10.4637
▁plate	-10.4637
▁march	-10.4639
▁Gramm	-10.464
▁Ridg	-10.464
wick	-10.4647
▁promote	-10.4648
▁shar	-10.4649
▁theatre	-10.4649
▁lap	-10.4651
▁inspiration	-10.4651
esse	-10.4652
▁Lee	-10.4657
▁sample	-10.4668
▁Gall	-10.4679
▁Jay	-10.4686
tus	-10.4691
▁Met	-10.4693
▁Wilde	-10.4698
▁signal	-10.4707
▁Homer	-10.4709
▁Gra	-10.4713
▁nois	-10.4716
ace	-10.472
▁Nin	-10.4721
▁Run	-10.4737
ues	-10.4746
▁bound	-10.4752
▁neck	-10.4753
▁Pre	-10.4755
▁plain	-10.4757
▁journey	-10.4758
▁valley	-10.4758
▁instance	-10.4759
▁doubt	-10.4767
▁surrender	-10.4768
▁ear	-10.4771
▁1953	-10.4775
▁rose	-10.478
▁Fame	-10.4781
▁recogni	-10.4786
ita	-10.4786
▁drug	-10.4787
▁eas	-10.479
▁Wh	-10.479
▁bomb	-10.4793
FA	-10.4803
roadway	-10.4805
▁defender	-10.481
▁sports	-10.4815
▁roll	-10.4817
▁dog	-10.482
▁175	-10.4825
board	-10.4832
ily	-10.4842
▁twin	-10.4844
vol	-10.4854
lay	-10.4855
ternal	-10.4859
▁heat	-10.4863
▁translat	-10.4867
ippi	-10.4877
▁Frederick	-10.4879
▁destructi	-10.4879
▁expansion	-10.4879
▁reinforc	-10.4879
▁magic	-10.4879
▁application	-10.4879
▁expos	-10.488
▁responsibilit	-10.488
▁fil	-10.4882
▁improve	-10.4882
▁revers	-10.4883
▁shipp	-10.4884
ili	-10.4885
03	-10.4885
▁fix	-10.4887
▁manner	-10.4895
▁94	-10.4897
▁blow	-10.4898
▁admitt	-10.4901
▁Bank	-10.4902
▁71	-10.4902
▁72	-10.491
▁Bon	-10.4913
cat	-10.4918
▁dry	-10.4926
van	-10.4936
erard	-10.4939
▁Alf	-10.4946
40	-10.495
24	-10.4951
▁politic	-10.4961
ivision	-10.4967
▁praise	-10.4968
▁85	-10.4969
▁programme	-10.4973
▁proper	-10.4975
▁Hell	-10.4977
ju	-10.4984
▁explor	-10.4992
▁examin	-10.4996
▁Stephen	-10.5003
▁benefit	-10.5003
▁patron	-10.5003
▁honour	-10.5003
▁recruit	-10.5003
▁deposit	-10.5003
▁Tower	-10.5003
▁thirt	-10.5003
▁pitcher	-10.5003
▁favorite	-10.5005
▁railway	-10.5005
▁assert	-10.5006
▁battleship	-10.5009
▁updat	-10.501
▁incorporat	-10.501
▁intelligen	-10.5011
▁enabl	-10.5014
▁hall	-10.5024
▁tap	-10.5024
▁seiz	-10.5029
▁eat	-10.5035
▁Bra	-10.5036
▁Justi	-10.5039
▁afterward	-10.5049
pack	-10.505
▁slave	-10.5054
▁81	-10.5054
▁raise	-10.5055
80	-10.5058
ission	-10.5064
▁originat	-10.5065
▁lose	-10.5071
▁Arch	-10.5085
▁reading	-10.5099
▁kn	-10.5105
▁min	-10.5108
▁possess	-10.5115
▁Down	-10.5115
▁experienc	-10.5117
▁Plunkett	-10.5128
▁Stefan	-10.5128
▁crown	-10.5128
▁franchise	-10.5128
▁puzzle	-10.5128
▁surprise	-10.5128
▁romantic	-10.5128
▁expert	-10.5128
▁Hugh	-10.5128
▁monarch	-10.5128
▁squadron	-10.5128
▁knots	-10.5128
▁Snow	-10.5128
▁Isabella	-10.5128
▁convecti	-10.5128
▁chemical	-10.5128
▁regiment	-10.5129
▁alternative	-10.5129
offman	-10.5132
▁Order	-10.5135
▁77	-10.5137
▁department	-10.5137
▁Squa	-10.5142
▁Char	-10.5148
▁purchase	-10.5164
▁signing	-10.5165
▁Who	-10.5168
can	-10.5173
▁cake	-10.518
▁van	-10.5182
lso	-10.5196
▁identit	-10.52
▁Owe	-10.5206
▁pound	-10.5215
▁authors	-10.5219
▁historic	-10.5224
▁recognis	-10.5227
ology	-10.5229
▁112	-10.5244
▁consum	-10.5245
▁characteristics	-10.5246
off	-10.5247
▁festival	-10.5254
▁predecessor	-10.5254
▁resource	-10.5254
▁Jersey	-10.5254
▁1917	-10.5254
▁moderate	-10.5255
▁motor	-10.5255
▁Serb	-10.5255
▁portrait	-10.5255
junction	-10.5255
▁Duke	-10.5258
▁preparation	-10.5258
▁Colonel	-10.5259
▁1890	-10.5259
▁conference	-10.5259
▁assistant	-10.526
▁bright	-10.5261
▁preferr	-10.5261
▁survivor	-10.5269
▁Tree	-10.5272
▁1948	-10.5273
▁Cast	-10.5274
▁opposit	-10.5286
SB	-10.5288
▁177	-10.5289
▁vary	-10.5295
iri	-10.5297
Q	-10.5297
▁Hami	-10.53
▁Will	-10.5301
▁prey	-10.5302
▁inner	-10.5311
ef	-10.5323
▁interchange	-10.5335
▁environment	-10.5341
▁moves	-10.5348
▁Tim	-10.5349
▁canal	-10.5358
itive	-10.5365
▁consistent	-10.5379
▁faith	-10.5381
▁Construct	-10.5382
▁Chronicle	-10.5382
▁diameter	-10.5382
▁europ	-10.5382
▁ignor	-10.5382
▁mechanic	-10.5383
▁tribes	-10.5383
▁kne	-10.5383
▁dramatic	-10.5387
▁adaptation	-10.5391
▁confus	-10.5393
▁tale	-10.5394
nlike	-10.5395
▁McCart	-10.5396
▁Sap	-10.5397
OT	-10.5406
poli	-10.5416
uji	-10.5422
▁shore	-10.5423
▁Hav	-10.5425
▁accident	-10.5426
metric	-10.5429
▁Ken	-10.543
tical	-10.5432
night	-10.544
▁Kell	-10.5468
vil	-10.5474
▁Hard	-10.5485
ike	-10.549
▁eyes	-10.5497
friend	-10.5506
▁Research	-10.5512
▁pupil	-10.5512
▁rhythm	-10.5512
▁sudden	-10.5512
▁wicket	-10.5513
▁Lenno	-10.5513
▁disappear	-10.5513
▁Kilm	-10.5513
▁statistic	-10.5513
▁colonial	-10.5517
▁pool	-10.5517
▁bond	-10.5521
mbled	-10.5522
chi	-10.553
▁1954	-10.5531
▁cycle	-10.5545
▁cu	-10.5556
seas	-10.5563
pan	-10.5563
▁Au	-10.5564
▁evening	-10.5566
▁completion	-10.5569
▁ridge	-10.5576
▁Wat	-10.5577
▁fitt	-10.5579
tav	-10.5591
▁mere	-10.5594
▁Less	-10.5596
▁electric	-10.5598
▁joint	-10.5601
▁notabl	-10.5602
▁aware	-10.5609
▁Your	-10.5616
▁strateg	-10.5619
▁argue	-10.5622
▁publisher	-10.5635
▁narrat	-10.5637
▁shop	-10.5639
aku	-10.564
epression	-10.5641
▁spirit	-10.5644
▁Jerusalem	-10.5644
▁Netherland	-10.5644
▁monitor	-10.5644
▁1937	-10.5644
▁steam	-10.5644
▁solid	-10.5644
▁turret	-10.5644
▁squad	-10.5644
▁plea	-10.5644
▁Campbel	-10.5645
▁sort	-10.5645
▁cult	-10.5647
▁moon	-10.565
▁Castle	-10.5655
▁fair	-10.5656
▁tourist	-10.5658
▁dock	-10.566
▁Argentin	-10.5665
▁Cu	-10.567
grad	-10.5673
lair	-10.5674
▁theater	-10.5676
▁hous	-10.5676
▁edit	-10.5678
▁Moder	-10.5691
cri	-10.5692
aska	-10.5706
▁Dot	-10.5717
▁coup	-10.5735
▁Quin	-10.5748
▁gate	-10.5749
▁rat	-10.5773
what	-10.5774
×	-10.5777
▁context	-10.5777
▁volunteer	-10.5777
▁Eliza	-10.5777
▁Transport	-10.5777
▁segment	-10.5777
▁entertain	-10.5777
▁relegat	-10.5777
▁ocean	-10.5777
▁initiative	-10.5784
▁Sound	-10.5785
▁organisation	-10.5785
och	-10.5788
▁1955	-10.5794
▁bell	-10.5795
▁Wy	-10.58
▁Ré	-10.58
▁urg	-10.5803
▁contribution	-10.5806
▁59	-10.5837
▁worship	-10.5845
▁sight	-10.5853
▁tee	-10.5856
▁Arts	-10.5858
rence	-10.5864
tract	-10.5865
▁regional	-10.5884
▁Ni	-10.5891
▁Patric	-10.5897
▁Count	-10.5897
▁engage	-10.5898
BS	-10.5903
▁Ray	-10.5909
▁dynast	-10.5912
▁bishop	-10.5912
▁knock	-10.5913
▁register	-10.5913
worth	-10.5918
▁belt	-10.5926
▁Rifle	-10.5927
▁Beach	-10.5929
▁committ	-10.593
▁179	-10.5937
ize	-10.5938
▁1900	-10.5938
arro	-10.594
▁Stran	-10.5941
▁Plo	-10.5948
▁adj	-10.5961
▁supporter	-10.5979
▁achieve	-10.598
ica	-10.5983
▁lay	-10.5994
▁Pan	-10.5996
▁warning	-10.601
▁import	-10.6029
▁execut	-10.603
room	-10.6043
▁criminal	-10.6049
▁dialogue	-10.6049
▁fragment	-10.6049
▁scientist	-10.6049
▁wrong	-10.6049
▁Point	-10.6049
▁lbw	-10.6053
▁shark	-10.6055
▁sacr	-10.6055
▁youth	-10.6058
ko	-10.6064
▁researcher	-10.6066
▁Isle	-10.6075
rapp	-10.6076
▁1949	-10.6078
▁offering	-10.6087
▁considerabl	-10.609
▁corner	-10.6092
▁worth	-10.6096
aware	-10.6097
▁Barb	-10.6106
▁Type	-10.611
▁Top	-10.6114
ography	-10.6117
▁sun	-10.612
▁transform	-10.6136
▁Johnston	-10.6138
ola	-10.6149
dding	-10.6162
▁Terr	-10.6162
▁Adam	-10.6164
▁importan	-10.6168
▁resum	-10.6171
▁favour	-10.6172
ough	-10.6175
rove	-10.618
▁initiat	-10.6181
nivers	-10.6183
ormula	-10.6184
▁Cory	-10.6188
▁implement	-10.6188
▁watershed	-10.6189
▁vegeta	-10.6189
▁expect	-10.619
▁wine	-10.6194
▁indig	-10.6194
▁notice	-10.62
▁Queens	-10.6201
▁Human	-10.6201
▁thin	-10.6201
▁Boo	-10.6209
▁Adams	-10.6214
▁Korean	-10.6217
▁Burns	-10.622
▁discussion	-10.622
▁Kea	-10.6225
▁tip	-10.6226
nada	-10.6227
▁lake	-10.6236
anyon	-10.6247
▁Congo	-10.6254
▁Tale	-10.6256
▁soul	-10.6256
▁physic	-10.6263
▁Nichol	-10.6274
spect	-10.6276
▁experiment	-10.6277
Pa	-10.6291
▁Thu	-10.6309
▁apart	-10.6325
▁emphasis	-10.6329
▁kitsune	-10.6329
▁orchestra	-10.6329
▁advocat	-10.6329
▁superior	-10.6329
▁Initial	-10.6329
▁Chief	-10.6329
▁Persian	-10.6329
cruz	-10.633
gin	-10.633
▁none	-10.633
▁Iron	-10.6331
▁documentar	-10.6333
▁Jar	-10.6334
▁Hotel	-10.6337
▁employee	-10.6338
▁electronic	-10.6342
▁assess	-10.6349
▁ensure	-10.6353
▁Gate	-10.6361
▁grey	-10.6361
▁stadium	-10.6372
J	-10.6377
▁founder	-10.6377
viation	-10.6395
▁Aeri	-10.6396
▁Ya	-10.6398
ction	-10.6407
▁cold	-10.6409
▁Ph	-10.641
▁driv	-10.6414
▁Roy	-10.6419
▁dig	-10.642
SA	-10.6433
▁listen	-10.644
▁bigge	-10.6441
▁concentrat	-10.6459
▁Cape	-10.6462
▁intensifi	-10.6463
▁visibl	-10.6471
▁coordinat	-10.6472
▁guilt	-10.6472
▁Leonard	-10.6472
▁citizen	-10.6472
▁Territor	-10.6472
▁carbon	-10.6472
▁desert	-10.6472
▁advertis	-10.6472
▁excit	-10.6472
▁muscari	-10.6473
▁talent	-10.6473
▁constitution	-10.6473
▁conclusion	-10.6473
▁controversial	-10.6474
▁Rhy	-10.6474
▁ruin	-10.6475
▁upgrad	-10.6479
rick	-10.648
▁acknowledg	-10.6482
▁profit	-10.6484
▁advis	-10.6495
ár	-10.6496
▁Color	-10.6497
▁internal	-10.6499
▁cook	-10.6508
▁Merc	-10.651
ological	-10.6511
▁cri	-10.6512
▁IV	-10.6512
▁Chu	-10.6516
acent	-10.6516
▁Ern	-10.6523
Tu	-10.6541
▁engineering	-10.6544
▁coal	-10.6549
▁characteriz	-10.655
▁cur	-10.6556
▁AD	-10.656
▁promis	-10.6566
teen	-10.6571
▁determine	-10.6572
fles	-10.6581
NS	-10.6581
▁opposite	-10.6589
▁compris	-10.6589
▁cloth	-10.6597
▁corn	-10.6598
▁restrict	-10.6604
▁Journal	-10.6617
▁streak	-10.6617
▁Palace	-10.6617
▁crest	-10.6617
▁remember	-10.6617
▁crash	-10.6619
cut	-10.6619
▁Fei	-10.662
▁1880	-10.6622
▁molecule	-10.6623
65	-10.6623
▁Muld	-10.6623
▁scientific	-10.6623
▁narrative	-10.6625
▁1909	-10.6626
▁compete	-10.6626
▁vari	-10.6638
▁hydro	-10.6646
memorial	-10.6648
▁selection	-10.6656
▁Here	-10.6656
▁Prior	-10.6657
▁solv	-10.6672
▁celebrat	-10.6675
mont	-10.6675
born	-10.668
▁Garc	-10.6692
▁expens	-10.6701
▁criticis	-10.6743
ceratops	-10.6764
▁Design	-10.6764
▁cloud	-10.6764
▁disrupt	-10.6764
▁equivalent	-10.6764
▁perspective	-10.6764
▁affair	-10.6764
▁Lancas	-10.6764
▁Wolf	-10.6767
▁1935	-10.6767
▁Guide	-10.6768
▁industrial	-10.6769
▁improvement	-10.6769
tendo	-10.6772
▁global	-10.6778
▁gri	-10.6781
▁Islam	-10.6785
▁Poland	-10.6789
▁Lega	-10.6791
▁lb	-10.6791
▁Er	-10.6792
▁Swed	-10.6794
▁fled	-10.6797
▁cease	-10.6797
▁Rod	-10.6799
▁format	-10.6807
▁intense	-10.6814
▁Eric	-10.6817
▁supervis	-10.6836
ntil	-10.6857
▁Hump	-10.6882
echo	-10.6887
olf	-10.6888
bound	-10.689
bul	-10.6891
▁revis	-10.6902
▁pursue	-10.6903
CO	-10.6906
▁designer	-10.6907
siege	-10.6909
eninsula	-10.691
ä	-10.6913
▁Enterprise	-10.6913
▁Shakespeare	-10.6913
▁escort	-10.6913
▁overwhelm	-10.6913
▁1932	-10.6913
▁Release	-10.6913
▁chamber	-10.6913
munition	-10.6913
▁amateur	-10.6913
▁gift	-10.6913
▁extension	-10.6914
▁tube	-10.6914
▁erect	-10.6914
▁Giant	-10.6918
▁Allah	-10.6922
▁Nick	-10.6928
▁deck	-10.6929
▁transition	-10.6941
▁Dominica	-10.6944
▁serial	-10.6946
mura	-10.6957
▁pun	-10.6959
graf	-10.6959
▁UN	-10.6961
▁hear	-10.6972
oxide	-10.6982
bar	-10.6987
▁marks	-10.6993
PA	-10.6994
▁log	-10.6994
otte	-10.7013
mouth	-10.7014
▁Philip	-10.7015
▁Pul	-10.7015
▁97	-10.7027
▁Shao	-10.7027
▁Every	-10.7039
efore	-10.7043
▁79	-10.7044
▁Jas	-10.7052
▁Guy	-10.7059
▁Communist	-10.7065
▁circle	-10.7065
▁circumstance	-10.7065
▁holiday	-10.7065
▁prerogative	-10.7065
▁inaugura	-10.7065
▁1929	-10.7065
▁1921	-10.7065
▁fifteen	-10.7065
▁feather	-10.7065
▁bann	-10.7066
▁climate	-10.7066
▁absence	-10.7067
Donald	-10.7069
▁reconstruction	-10.7069
▁invad	-10.7071
▁price	-10.7073
▁estimate	-10.7078
amino	-10.7082
▁trust	-10.7082
▁agenc	-10.7083
▁Fair	-10.7083
▁gone	-10.71
▁Lords	-10.7107
▁Late	-10.7108
nnie	-10.7118
▁schedule	-10.7132
rich	-10.7136
inje	-10.7136
▁ranking	-10.7137
▁prisoner	-10.7142
graph	-10.7146
▁stands	-10.7147
▁Kod	-10.7149
▁aut	-10.7151
▁fin	-10.7154
ranch	-10.7156
aka	-10.7158
CC	-10.7167
appropriate	-10.7171
▁Cambodia	-10.7175
rell	-10.7178
bil	-10.7187
▁influen	-10.7198
▁Tel	-10.7199
▁impos	-10.7206
mperor	-10.7212
▁Hospital	-10.7218
▁Education	-10.7219
▁beautiful	-10.7219
▁exhaust	-10.7219
▁Sweet	-10.7219
▁acclaim	-10.7219
▁reconn	-10.7219
▁Pitman	-10.7219
▁gross	-10.7219
▁devote	-10.7219
▁goddess	-10.7219
▁Imperi	-10.7219
▁Geoff	-10.7219
▁buy	-10.722
▁fountain	-10.7222
▁1938	-10.7222
▁Stock	-10.7224
▁deem	-10.7227
▁argument	-10.723
▁continent	-10.7231
▁Republican	-10.7239
▁Dark	-10.724
▁66	-10.7243
▁Are	-10.7254
▁mistake	-10.7255
▁Ancient	-10.7257
▁Cook	-10.7261
▁Lib	-10.7261
▁1962	-10.7263
oma	-10.7274
▁Marg	-10.7277
▁prison	-10.7296
ille	-10.7305
▁trace	-10.7319
iana	-10.732
▁canon	-10.732
▁par	-10.733
▁Tak	-10.7331
▁restor	-10.7345
uri	-10.7353
▁behavio	-10.7357
▁Bert	-10.7359
▁listing	-10.7362
▁runner	-10.7363
▁compet	-10.7365
▁interpret	-10.7369
▁Palestin	-10.7372
▁Protestant	-10.7375
▁helmet	-10.7375
▁professor	-10.7375
▁prohibit	-10.7375
▁shirt	-10.7375
▁drink	-10.7375
▁Space	-10.7375
▁comparison	-10.7375
▁answer	-10.7375
▁spiritual	-10.7375
▁renew	-10.7375
▁departure	-10.7376
▁residence	-10.7376
▁string	-10.7376
▁exposure	-10.7376
▁Phoeni	-10.7376
▁accompany	-10.7377
▁false	-10.7377
▁Glas	-10.7377
▁Thai	-10.7378
fen	-10.7381
▁simultaneous	-10.7381
▁clock	-10.7383
▁disaster	-10.7383
▁Gro	-10.7387
▁FIF	-10.739
▁graduat	-10.7391
▁investigation	-10.7394
hannel	-10.7397
ump	-10.74
rising	-10.7409
▁impossib	-10.7409
adhe	-10.741
▁Matt	-10.7413
▁Kra	-10.7417
gram	-10.7422
math	-10.7425
▁Jew	-10.7425
▁Our	-10.7431
▁bus	-10.7432
▁Now	-10.7434
▁Ball	-10.7455
abo	-10.7455
▁Come	-10.7462
▁resemble	-10.7467
state	-10.7471
ja	-10.7479
▁Lia	-10.7483
▁rac	-10.7487
ware	-10.7489
▁Di	-10.7497
▁Chen	-10.7505
▁suburb	-10.751
▁Sup	-10.7516
▁Class	-10.7518
▁speculat	-10.7521
▁del	-10.7523
fusion	-10.7523
▁proportion	-10.7524
life	-10.7527
athedral	-10.753
wich	-10.753
▁colleague	-10.7534
▁rhyme	-10.7534
atechism	-10.7534
▁disappoint	-10.7534
▁scatter	-10.7534
▁tributar	-10.7534
▁Furt	-10.7534
▁cinema	-10.7534
▁blame	-10.7534
gent	-10.7534
▁McL	-10.7535
▁crake	-10.7536
owi	-10.7536
throne	-10.7536
uve	-10.7537
▁Head	-10.7538
▁mixture	-10.7538
▁parish	-10.7541
▁Rhodesia	-10.7544
▁USD	-10.7545
▁concentration	-10.7548
▁Moore	-10.7548
▁wherea	-10.7548
ureau	-10.7551
▁rug	-10.7554
▁fold	-10.7555
▁Stop	-10.7558
▁Mass	-10.7558
▁bearing	-10.7558
▁Raf	-10.7559
▁undergo	-10.7564
▁Massac	-10.7567
▁DC	-10.7568
▁FR	-10.7571
NO	-10.7572
▁Gre	-10.7572
▁Web	-10.7573
▁depiction	-10.7576
▁Face	-10.7579
OC	-10.7596
▁Polic	-10.7604
teel	-10.7618
▁Joy	-10.7621
etts	-10.7621
▁Yo	-10.7622
▁Labor	-10.7624
▁Swi	-10.7626
fast	-10.7632
oft	-10.7639
▁shoulder	-10.764
▁Mother	-10.7643
▁88	-10.7648
▁classe	-10.7663
cher	-10.7671
▁Pat	-10.768
▁teach	-10.7685
▁Gray	-10.7691
▁Wild	-10.7692
▁Saturday	-10.7695
▁Ustaš	-10.7695
▁infrastructur	-10.7695
▁manuscript	-10.7695
▁scheme	-10.7695
▁skull	-10.7695
▁Fernand	-10.7695
▁giant	-10.7695
▁huge	-10.7696
▁aggressive	-10.7696
▁slope	-10.7697
▁brick	-10.7699
▁Krak	-10.77
▁elevation	-10.7705
▁premiere	-10.771
▁northward	-10.771
umn	-10.7711
▁behavior	-10.7714
dolen	-10.7717
▁pure	-10.7718
▁Along	-10.7719
▁XI	-10.7725
▁gr	-10.7727
▁dad	-10.773
▁mini	-10.7734
ski	-10.7741
▁bay	-10.7743
▁drums	-10.7752
▁biographer	-10.7757
ugb	-10.7761
▁developer	-10.7762
766	-10.7766
▁mediu	-10.7781
▁Israeli	-10.7787
cia	-10.7795
▁diet	-10.7801
▁Tru	-10.7807
▁tone	-10.7808
ario	-10.781
▁Burn	-10.7838
artial	-10.7841
▁Mexic	-10.7843
yria	-10.7856
▁modifi	-10.7859
▁melod	-10.7859
ELI	-10.7859
▁DAG	-10.7859
▁creek	-10.7859
▁tribute	-10.7859
▁Eagle	-10.7859
▁sentiment	-10.7859
▁suspect	-10.7859
▁brand	-10.7859
▁reinforcement	-10.7859
▁loan	-10.7859
▁Treat	-10.7859
▁Tiger	-10.7859
▁Blood	-10.7859
▁copy	-10.786
▁chain	-10.786
lew	-10.7862
▁evolv	-10.7862
uart	-10.7864
rous	-10.7867
▁pin	-10.7868
erff	-10.7868
▁admir	-10.787
aster	-10.7874
MO	-10.7876
▁Bark	-10.7876
athan	-10.7876
▁impression	-10.7877
▁resistan	-10.7878
▁useful	-10.788
▁Philli	-10.7884
▁commandment	-10.7885
▁continuous	-10.7886
▁architect	-10.7886
▁flower	-10.7887
▁Evan	-10.7887
how	-10.789
▁Media	-10.7896
eigh	-10.7899
▁Vice	-10.7899
▁Hit	-10.7907
q	-10.7916
arvati	-10.7918
▁sunk	-10.7925
▁exten	-10.793
▁Cold	-10.7936
erial	-10.7937
▁rect	-10.7942
▁Pin	-10.7949
▁collapse	-10.7953
mediate	-10.7955
▁Mil	-10.7964
▁struggl	-10.7973
enon	-10.7976
▁Back	-10.7984
▁Hous	-10.799
▁earning	-10.7993
aide	-10.7997
tors	-10.7999
▁Barbar	-10.8006
▁grade	-10.8008
▁decorat	-10.8013
▁subt	-10.8019
▁Defens	-10.802
▁differ	-10.8023
erfect	-10.8023
▁speaker	-10.8025
qualifi	-10.8025
▁conversation	-10.8025
▁elaborate	-10.8025
▁helicopter	-10.8025
▁jackrabbit	-10.8025
▁loyal	-10.8025
▁choir	-10.8025
▁Front	-10.8025
▁1928	-10.8025
▁dinosaur	-10.8025
▁shelter	-10.8026
▁embark	-10.8026
▁Glad	-10.8026
▁Cultur	-10.8026
▁accurate	-10.8026
▁ride	-10.8026
▁Nazi	-10.8027
▁Hokie	-10.8027
▁kingdom	-10.8028
▁definition	-10.8028
▁Norway	-10.8029
▁Township	-10.803
erior	-10.8033
▁tight	-10.8034
▁Ash	-10.8034
▁requirement	-10.8035
▁Kit	-10.8036
▁render	-10.8036
▁VII	-10.8037
▁trick	-10.8041
▁Wind	-10.8045
gner	-10.8047
▁artificial	-10.8048
▁Bass	-10.8051
DH	-10.8053
howitz	-10.8062
sburg	-10.8066
boy	-10.8074
derers	-10.8075
▁correspond	-10.8083
▁Dave	-10.8089
cute	-10.8089
book	-10.8091
▁Av	-10.8102
activat	-10.8104
▁Historic	-10.8107
▁sale	-10.8133
▁Shell	-10.8158
▁weigh	-10.8161
▁Memori	-10.8163
reme	-10.8169
cade	-10.8172
EC	-10.8173
▁Minist	-10.8173
▁woode	-10.8175
▁premier	-10.8179
▁collaborat	-10.8182
▁profi	-10.8185
▁inhabit	-10.8193
▁principle	-10.8195
▁shrine	-10.8195
▁librar	-10.8195
▁switch	-10.8195
▁substance	-10.8195
▁1927	-10.8195
▁Nebr	-10.8195
▁Cecil	-10.8195
▁Eaton	-10.8195
▁Scu	-10.8195
sphere	-10.8196
▁Senator	-10.8199
▁Patty	-10.8199
▁device	-10.82
▁farmer	-10.82
▁vice	-10.8204
▁code	-10.8208
▁bat	-10.822
▁dense	-10.8221
▁authoriz	-10.8222
istan	-10.8228
▁Commando	-10.8229
▁remove	-10.8231
▁Grad	-10.8237
▁06	-10.8242
unch	-10.8242
▁emergenc	-10.8242
▁expression	-10.8245
temporary	-10.8247
▁Mol	-10.8253
sumption	-10.8255
▁Portugal	-10.8258
▁challeng	-10.8262
sswell	-10.8262
Neil	-10.8268
▁insist	-10.8268
▁162	-10.8275
bel	-10.8285
▁Ye	-10.8295
▁Cro	-10.8305
▁Race	-10.8333
▁assassinat	-10.8337
▁Ric	-10.8345
ura	-10.8346
▁Mer	-10.8356
▁preced	-10.8361
ʻ	-10.8367
▁Yugoslav	-10.8367
▁absolute	-10.8367
▁garrison	-10.8367
▁nickname	-10.8367
▁occupation	-10.8367
▁phrase	-10.8367
▁Stewart	-10.8367
▁commemorat	-10.8367
▁1933	-10.8367
▁Yankee	-10.8367
▁margin	-10.8367
▁abundan	-10.8367
▁Baker	-10.8368
▁corps	-10.8368
▁marry	-10.8369
▁Midge	-10.8369
▁inhabitant	-10.8369
▁dangerous	-10.837
▁slide	-10.837
▁restoration	-10.8374
▁Room	-10.8374
▁Hawaiian	-10.8376
▁magnet	-10.8376
▁Mathe	-10.8376
▁1860	-10.8377
▁Haitian	-10.8379
▁collaboration	-10.8381
▁Sand	-10.8382
▁Eight	-10.8384
▁empire	-10.8385
▁Sil	-10.8385
ulu	-10.8387
▁Weir	-10.8387
▁shut	-10.8396
zor	-10.8397
▁substitute	-10.8397
eff	-10.8398
▁Fire	-10.8403
▁63	-10.8406
rate	-10.8408
▁vertical	-10.8413
▁reliev	-10.8415
▁Cub	-10.8427
▁trapp	-10.8429
▁pale	-10.8431
▁Allen	-10.8436
▁spur	-10.8438
▁Abb	-10.8439
SP	-10.8452
▁Main	-10.8458
▁Pass	-10.8463
▁See	-10.8468
▁Ful	-10.8473
▁controller	-10.8477
▁lover	-10.8478
▁myth	-10.8484
▁93	-10.8487
▁mental	-10.8497
▁complain	-10.8504
war	-10.8505
▁74	-10.851
▁manage	-10.8513
ification	-10.8517
▁instruct	-10.853
▁intersect	-10.853
▁situat	-10.853
ken	-10.8532
▁pine	-10.8532
▁Mozambi	-10.8542
▁Lithuania	-10.8543
▁doctrine	-10.8543
▁virtual	-10.8543
▁ethnic	-10.8543
▁divorce	-10.8543
▁prince	-10.8543
▁poison	-10.8543
▁humor	-10.8543
▁cabin	-10.8543
▁attitude	-10.8543
▁lift	-10.8544
▁Wicca	-10.8544
▁prize	-10.8545
▁artwork	-10.8546
▁Chapel	-10.8546
▁politician	-10.8546
cyclic	-10.8547
▁doctor	-10.8548
▁Niel	-10.8548
▁elder	-10.8554
▁Robin	-10.856
▁translation	-10.8561
puls	-10.8563
▁Yeo	-10.8564
▁1957	-10.8565
▁realiz	-10.857
▁82	-10.8581
▁choose	-10.8583
▁achievement	-10.8584
▁chick	-10.8585
▁advisor	-10.8585
▁demon	-10.8592
▁Dean	-10.8608
▁puppet	-10.8617
uda	-10.8619
▁Para	-10.8624
▁warn	-10.8626
▁sharp	-10.8627
rik	-10.8639
▁Last	-10.8642
▁Berg	-10.8644
▁Bath	-10.8653
▁ideal	-10.8654
rah	-10.8654
▁guid	-10.866
▁900	-10.8667
▁topp	-10.8677
▁Russia	-10.8681
scrib	-10.8709
agre	-10.871
▁ruler	-10.8716
▁danger	-10.8719
clusion	-10.872
constitut	-10.8721
ś	-10.8721
▁Railway	-10.8721
▁absorb	-10.8721
▁anekānta	-10.8721
▁licens	-10.8721
▁suspend	-10.8721
▁ticket	-10.8721
▁Network	-10.8721
▁check	-10.8721
▁frigate	-10.8721
▁tissue	-10.8721
▁Christoph	-10.8721
▁Celtic	-10.8721
▁skelet	-10.8721
▁Hudson	-10.8721
▁commenc	-10.8722
▁phone	-10.8722
ourney	-10.8723
▁vast	-10.8727
▁Place	-10.8727
olith	-10.8727
▁Barry	-10.8728
▁1850	-10.873
▁infection	-10.8731
venge	-10.8733
▁measurement	-10.8733
▁carriage	-10.8735
ryce	-10.8742
▁Season	-10.8745
▁Kim	-10.8752
ibilit	-10.8759
anagement	-10.8759
▁Made	-10.877
Malle	-10.8771
▁burial	-10.8779
▁Oh	-10.878
▁Nad	-10.8781
▁Qi	-10.8794
▁Monta	-10.8825
▁Jr	-10.8852
▁statue	-10.8869
▁danc	-10.8878
▁140	-10.8878
▁Hind	-10.8888
▁practi	-10.8893
▁Wall	-10.8898
▁depart	-10.8901
▁Confession	-10.8903
▁Magdalen	-10.8903
▁Organization	-10.8903
▁confiden	-10.8903
▁dynamic	-10.8903
▁emphasiz	-10.8903
▁pistol	-10.8903
▁reservoir	-10.8903
▁mammal	-10.8903
▁striking	-10.8903
▁perceive	-10.8903
▁1926	-10.8903
▁Trek	-10.8904
▁railroad	-10.8904
▁Silver	-10.8904
▁classification	-10.8905
▁export	-10.8906
▁horn	-10.8909
▁Bree	-10.8909
▁halt	-10.8911
▁Arsenal	-10.8912
▁playoff	-10.8913
▁Highland	-10.8923
▁hot	-10.8923
▁Kat	-10.893
ient	-10.8942
▁representation	-10.8945
▁Rand	-10.8957
▁Charm	-10.8986
uous	-10.9005
▁Sb	-10.901
ilk	-10.9014
amount	-10.9021
linger	-10.9023
tah	-10.9025
down	-10.9025
▁fate	-10.9027
esi	-10.903
gular	-10.9037
ASA	-10.9039
cake	-10.904
iva	-10.9051
▁exercise	-10.9058
▁Davi	-10.9059
▁introduce	-10.9062
▁reviv	-10.9063
pen	-10.9064
▁financ	-10.9065
▁humanit	-10.9072
▁animat	-10.9076
▁Christin	-10.9077
▁05	-10.9079
▁accomplish	-10.9084
ategor	-10.9086
▁Express	-10.9088
▁Corporation	-10.9088
▁buoy	-10.9088
▁thereafter	-10.9088
▁wrestl	-10.9088
▁identify	-10.9088
▁alleged	-10.9088
▁Witch	-10.9088
▁error	-10.9089
▁sit	-10.909
▁imprison	-10.909
▁audio	-10.9093
▁cargo	-10.9093
▁genetic	-10.9094
▁1905	-10.9097
▁reduction	-10.9097
▁teammate	-10.9098
▁monk	-10.9099
▁Kr	-10.9101
rmament	-10.9101
▁Gho	-10.9104
egon	-10.9107
▁Michel	-10.9112
▁Bang	-10.9114
▁Bible	-10.9117
▁uncle	-10.9118
▁Gun	-10.912
▁creative	-10.9153
▁tun	-10.9154
face	-10.916
raw	-10.9161
▁Neve	-10.9163
▁funera	-10.9167
ugu	-10.9174
▁stoo	-10.9189
▁Rain	-10.919
▁punt	-10.9202
▁Madi	-10.9206
▁Chi	-10.9206
▁bull	-10.921
▁emotion	-10.9216
▁custom	-10.9227
oster	-10.9228
▁follower	-10.925
▁ensu	-10.9255
▁Christi	-10.9261
▁pursu	-10.9272
utstanding	-10.9276
“	-10.9277
▁Chevalier	-10.9277
▁Paralympic	-10.9277
▁dwarf	-10.9277
▁illegal	-10.9277
▁transmission	-10.9277
▁Iraq	-10.9277
▁Provinc	-10.9277
▁Crim	-10.9277
▁delegat	-10.9277
▁decay	-10.9277
▁enhanc	-10.9277
▁anthem	-10.9278
▁ballad	-10.9278
mour	-10.9278
Carmel	-10.9278
▁exceed	-10.9278
▁Qedarite	-10.9278
▁Dyna	-10.9278
▁provision	-10.9279
▁structural	-10.928
▁Garden	-10.928
▁Thing	-10.928
▁recreation	-10.9281
▁outbreak	-10.9281
riff	-10.9284
▁upset	-10.9289
rp	-10.9291
gli	-10.9293
▁sad	-10.9296
▁Beau	-10.9296
▁Nex	-10.9297
▁appointment	-10.93
▁68	-10.9302
▁122	-10.9319
▁cav	-10.9324
▁marking	-10.9324
▁Kir	-10.9326
▁08	-10.9333
▁promise	-10.9338
▁Romanian	-10.934
game	-10.9343
▁presentation	-10.9348
▁vici	-10.9348
▁Such	-10.9368
▁personalit	-10.9371
▁explore	-10.9379
▁lit	-10.938
▁Rea	-10.9402
mbar	-10.9416
▁Lover	-10.9419
▁Mel	-10.9426
zu	-10.9447
▁onward	-10.9454
▁trie	-10.9458
▁Building	-10.9469
▁Dakota	-10.9469
▁Madrid	-10.9469
▁concession	-10.9469
▁consequence	-10.9469
▁fundamental	-10.9469
▁uncertain	-10.9469
▁condemn	-10.9469
▁Langu	-10.9469
▁persuad	-10.9469
▁1925	-10.9469
▁insect	-10.9469
▁steep	-10.9469
▁balance	-10.9469
▁platoon	-10.947
▁Tracy	-10.947
▁Adria	-10.947
▁garden	-10.947
▁fantas	-10.947
▁Beeton	-10.947
▁Voyage	-10.947
▁Section	-10.9471
usiness	-10.9472
enjam	-10.9474
▁bind	-10.9475
▁stick	-10.9475
▁heli	-10.9476
▁Nash	-10.9476
▁Viet	-10.948
▁joke	-10.9481
▁animation	-10.9483
▁saint	-10.9485
▁tru	-10.9489
PS	-10.949
▁jet	-10.9493
illenni	-10.9498
▁cancell	-10.95
▁Vic	-10.9501
▁Tur	-10.9509
▁invest	-10.9511
▁spectr	-10.9513
▁Pen	-10.9518
▁Hor	-10.9519
▁Peac	-10.9525
▁pain	-10.9541
▁prepare	-10.9543
▁gap	-10.9549
▁angle	-10.9554
▁tool	-10.9555
▁sink	-10.9556
▁net	-10.9558
gov	-10.9564
▁mill	-10.9583
cular	-10.9588
▁Mart	-10.9588
ool	-10.9619
▁Columb	-10.9623
▁Die	-10.963
dominant	-10.9631
witzer	-10.9641
power	-10.9648
NC	-10.965
▁Cong	-10.9652
ologist	-10.9653
arrow	-10.9654
cation	-10.9655
▁plus	-10.9665
▁frustrat	-10.9665
▁satellite	-10.9665
▁smooth	-10.9665
▁suicide	-10.9665
▁theatrical	-10.9665
▁diplomat	-10.9665
▁barrier	-10.9665
▁1934	-10.9665
lephant	-10.9665
▁asteroid	-10.9665
▁dozen	-10.9665
▁gust	-10.9666
▁innovat	-10.9666
▁costume	-10.9666
▁demolish	-10.9666
▁Natural	-10.9666
plasm	-10.9667
▁McG	-10.9667
▁Cull	-10.9668
▁captiv	-10.9671
▁engagement	-10.9672
▁interpretation	-10.9673
▁Stud	-10.9675
▁leukemia	-10.9677
▁submitt	-10.9682
aia	-10.9684
▁prepar	-10.9685
▁Univers	-10.9685
▁Berlin	-10.9702
▁Member	-10.9712
cca	-10.9723
▁pace	-10.9726
rose	-10.9729
▁environmental	-10.9729
▁pounder	-10.9732
▁medal	-10.9735
▁favorabl	-10.9735
▁Edi	-10.974
▁Case	-10.9742
▁artistic	-10.9743
▁Lead	-10.9748
▁attribute	-10.9751
▁collaps	-10.9752
▁minorit	-10.9755
owa	-10.9773
▁Glob	-10.9779
▁Greg	-10.9801
▁municipal	-10.9804
▁Ten	-10.9807
roll	-10.9808
▁Wu	-10.9811
▁rebuil	-10.9824
nburg	-10.9827
dine	-10.9831
▁mat	-10.9836
▁Imagin	-10.9845
▁Kong	-10.9846
▁Gang	-10.9846
▁tenth	-10.9852
▁Pole	-10.9854
natural	-10.9855
▁journal	-10.9863
è	-10.9864
▁persist	-10.9865
▁Hawaii	-10.9865
▁satisf	-10.9865
▁Adventure	-10.9865
▁Vulcan	-10.9865
▁athletic	-10.9865
▁disband	-10.9865
▁Eshmun	-10.9865
▁junior	-10.9865
▁relocat	-10.9865
▁fertil	-10.9865
▁exploit	-10.9866
▁cousin	-10.9866
▁Again	-10.9866
▁Chron	-10.9866
▁battlecruiser	-10.9866
▁Biograph	-10.9866
▁pleasure	-10.9867
▁biological	-10.9867
▁destination	-10.9868
▁sure	-10.9869
▁Antoni	-10.9869
▁lawyer	-10.9869
▁sixteen	-10.9869
▁poll	-10.9871
▁Walker	-10.9872
▁1870	-10.9873
▁1908	-10.9874
troi	-10.9876
▁WW	-10.9879
▁Nel	-10.9882
▁revenue	-10.9884
▁Priest	-10.9885
▁Artist	-10.9886
▁Gib	-10.989
▁Ingr	-10.9894
▁Fred	-10.9894
▁understo	-10.9896
▁descend	-10.9897
stella	-10.9899
MI	-10.991
lane	-10.9911
▁Gregor	-10.9937
▁coat	-10.9942
▁Denn	-10.9944
▁Penn	-10.9951
dium	-10.9964
▁anger	-10.9968
▁manufacturer	-10.9975
▁hitt	-10.9994
▁invent	-11.0009
▁emb	-11.0017
▁mayor	-11.002
▁observe	-11.0038
▁genera	-11.0041
▁Corp	-11.0053
▁convict	-11.0057
▁elevat	-11.0057
lster	-11.0064
tters	-11.0067
▁complicat	-11.0069
▁culminat	-11.0069
▁intellectual	-11.0069
▁kilometer	-11.0069
▁mathematic	-11.0069
▁obvious	-11.0069
▁refuge	-11.0069
▁centimet	-11.0069
▁Harrison	-11.0069
▁strict	-11.0069
▁yield	-11.0069
▁tackle	-11.007
▁1923	-11.007
▁Caesar	-11.007
▁shock	-11.007
rizon	-11.0071
ventual	-11.0073
▁closure	-11.0073
▁Adel	-11.0073
▁violation	-11.0077
▁abuse	-11.0079
▁Hil	-11.0082
▁negotiation	-11.0082
abour	-11.0083
▁Clint	-11.0085
chel	-11.0089
▁cup	-11.0095
▁strategic	-11.0108
▁realize	-11.0112
▁Bah	-11.0113
hre	-11.0114
▁jur	-11.0119
aski	-11.012
▁Dog	-11.0122
▁Mid	-11.0126
▁Feli	-11.0126
▁Lane	-11.0128
▁Magn	-11.0128
▁Countr	-11.0129
▁mono	-11.0139
lude	-11.0139
etter	-11.014
▁Ush	-11.0146
▁Actor	-11.0147
▁crosse	-11.0152
grid	-11.0158
▁Sorr	-11.0164
hoon	-11.0164
▁fame	-11.0184
▁Abbe	-11.0202
cock	-11.0209
itting	-11.0223
ulf	-11.0234
▁Korea	-11.0235
wheel	-11.0236
▁Argentine	-11.0244
avage	-11.0245
▁Ida	-11.0248
▁Ow	-11.0256
▁negotiat	-11.0265
▁knee	-11.0267
oundation	-11.0276
adequate	-11.0278
▁Lincoln	-11.0278
▁Singapore	-11.0278
▁cluster	-11.0278
▁compliment	-11.0278
▁neighbour	-11.0278
▁punishment	-11.0278
▁regulation	-11.0278
▁competitor	-11.0278
▁diagnos	-11.0278
▁parody	-11.0278
▁photo	-11.0278
▁essay	-11.0278
▁strain	-11.0278
▁thirteen	-11.0278
▁eighteen	-11.0278
▁Pitt	-11.0279
▁armour	-11.0279
▁Program	-11.0279
itter	-11.0279
▁Arka	-11.0281
▁loose	-11.0281
▁rotation	-11.0282
▁recognize	-11.0283
▁tension	-11.0283
▁Anne	-11.0285
▁1830	-11.0287
▁resolution	-11.0288
▁percentage	-11.029
▁orient	-11.0293
bai	-11.0296
▁Maya	-11.0296
▁execution	-11.0297
▁Classic	-11.0299
▁exhibition	-11.03
spel	-11.0302
▁Trust	-11.0305
▁Look	-11.031
▁USS	-11.031
ön	-11.0312
▁encourage	-11.0339
ecur	-11.0342
▁Know	-11.0347
father	-11.0353
ark	-11.0368
▁extrat	-11.037
▁rob	-11.0377
▁Norw	-11.0379
▁Marian	-11.0385
▁celebrate	-11.0388
bone	-11.0397
ption	-11.0397
▁incorporate	-11.0405
▁advi	-11.0411
▁bore	-11.0419
▁hole	-11.0421
▁topic	-11.0437
xis	-11.0442
▁Angelo	-11.0452
▁Gri	-11.0452
▁donat	-11.0458
▁Cap	-11.0462
▁Kati	-11.0465
ensi	-11.0468
hire	-11.0483
▁Belgi	-11.0483
temporari	-11.0488
▁Matthew	-11.0491
▁Observer	-11.0491
▁Sanskrit	-11.0491
▁deliberate	-11.0491
▁devotion	-11.0491
▁membrane	-11.0491
▁semifinal	-11.0491
ø	-11.0491
▁Publish	-11.0491
▁supplement	-11.0491
▁Machine	-11.0491
▁extinct	-11.0491
▁Cooper	-11.0491
▁Credit	-11.0491
▁audition	-11.0491
▁shaft	-11.0491
▁laborator	-11.0491
▁Flower	-11.0491
▁Where	-11.0491
▁interven	-11.0491
▁debt	-11.0491
▁hull	-11.0491
▁stump	-11.0492
▁communist	-11.0492
▁recurr	-11.0493
▁labor	-11.0495
▁Trail	-11.0495
▁compilation	-11.0495
▁gray	-11.0495
▁programming	-11.0495
▁prospect	-11.0496
▁Edge	-11.0497
▁conversi	-11.0497
▁Belgian	-11.0498
▁Brig	-11.0498
▁fourteen	-11.0498
▁Syria	-11.0503
▁Francis	-11.0507
▁Sara	-11.0507
▁permissi	-11.0507
▁celebration	-11.0509
▁Tit	-11.051
▁Plu	-11.0512
▁sang	-11.0517
▁Near	-11.0517
▁runway	-11.0518
trench	-11.0527
donna	-11.0527
ubspecies	-11.0532
▁File	-11.0533
▁Ship	-11.054
▁09	-11.0542
direct	-11.0547
▁Russ	-11.0558
▁chas	-11.056
tress	-11.0569
▁lad	-11.0571
▁archbishop	-11.0574
éti	-11.0579
▁restore	-11.0579
▁resembl	-11.0581
▁Dor	-11.06
▁Lei	-11.0601
▁northeaster	-11.0608
▁Bad	-11.0609
vor	-11.061
▁Farm	-11.0614
Shar	-11.0617
▁Cyr	-11.0623
▁curve	-11.0634
▁Foo	-11.0652
▁liber	-11.0658
▁repli	-11.066
▁Marshal	-11.0671
▁hearing	-11.0675
▁nave	-11.0677
▁Tat	-11.0678
eaten	-11.068
▁Note	-11.0681
▁twentie	-11.069
▁southeaster	-11.0692
▁endur	-11.0695
igital	-11.0705
limb	-11.0705
▁neighbor	-11.0707
egister	-11.0708
overeign	-11.0708
▁Hampshire	-11.0708
▁Headquarter	-11.0708
▁Jacob	-11.0708
▁evident	-11.0708
▁explosive	-11.0708
▁fossil	-11.0708
▁merchant	-11.0708
▁neutral	-11.0708
▁qualify	-11.0708
▁uniform	-11.0708
▁float	-11.0708
▁Observat	-11.0708
▁console	-11.0708
▁Social	-11.0708
▁dubb	-11.0708
▁venture	-11.0708
▁1922	-11.0708
▁Dudley	-11.0708
▁fault	-11.0708
arpenter	-11.0708
▁align	-11.0708
▁Honor	-11.0708
▁calib	-11.0708
▁Hobb	-11.0709
▁harbour	-11.071
▁umpire	-11.071
▁Stavan	-11.0711
▁steal	-11.0711
uzz	-11.0711
▁Palestinian	-11.0712
▁investment	-11.0713
nnett	-11.0714
manita	-11.0714
▁Palm	-11.0714
▁Fif	-11.0714
▁Bald	-11.0716
▁microscop	-11.0716
▁suitabl	-11.0719
▁Clair	-11.0725
▁Chan	-11.0725
▁Name	-11.0726
▁trend	-11.0727
▁logic	-11.0731
▁weekend	-11.0732
▁noble	-11.0732
rze	-11.0732
▁collective	-11.0734
▁permitt	-11.0735
▁Syd	-11.0736
▁amid	-11.0737
▁Range	-11.0747
▁geograph	-11.0754
▁valu	-11.0758
▁Zoo	-11.0766
ophy	-11.0778
▁beam	-11.0819
▁Larr	-11.0828
▁mole	-11.0843
▁pav	-11.0855
▁Edit	-11.0877
▁horr	-11.0896
place	-11.0899
▁Cit	-11.0901
▁carrie	-11.0902
mobile	-11.0904
zer	-11.0911
▁migrat	-11.0919
inner	-11.0926
▁bombing	-11.0929
▁Kenne	-11.0929
₹	-11.093
▁Collection	-11.093
▁Mitchell	-11.093
▁Survey	-11.093
▁Zanzibar	-11.093
▁accommodate	-11.093
▁administrative	-11.093
▁aggregat	-11.093
▁dispatch	-11.093
▁suppress	-11.093
▁pioneer	-11.093
brush	-11.093
▁advertisement	-11.093
▁regain	-11.093
▁efficien	-11.093
▁Indonesia	-11.093
▁oxy	-11.093
▁jaw	-11.0931
▁neighborhood	-11.0931
▁Compani	-11.0931
▁refin	-11.0931
▁Hungarian	-11.0932
▁predominant	-11.0932
rust	-11.0932
▁Plate	-11.0932
▁disturbance	-11.0933
▁Canning	-11.0935
▁Kirk	-11.0936
▁reactor	-11.0937
▁Report	-11.0938
▁Deep	-11.0939
▁Lud	-11.0941
▁densit	-11.0945
▁1861	-11.0945
top	-11.0949
▁restriction	-11.095
▁Trin	-11.0951
▁Data	-11.0953
▁Sora	-11.0963
▁Alex	-11.0963
▁Northumb	-11.0964
▁Anim	-11.0965
▁Intern	-11.0969
▁Cat	-11.0969
▁Movie	-11.0969
▁Rick	-11.0971
▁comprise	-11.0974
matic	-11.0974
▁Chap	-11.0975
▁101	-11.0975
ná	-11.0978
▁Carlo	-11.0989
▁ratio	-11.0993
▁Got	-11.0995
hua	-11.0996
▁successive	-11.0996
▁preserve	-11.0996
▁Arn	-11.1
▁02	-11.1005
▁Mile	-11.1011
terchange	-11.1013
▁Sina	-11.1015
▁wishe	-11.102
▁unna	-11.1024
street	-11.1027
guard	-11.1027
▁Pier	-11.1033
WC	-11.1044
▁Euro	-11.1053
▁sq	-11.1078
▁seal	-11.1078
▁similarit	-11.1088
▁Atl	-11.1088
▁mature	-11.1097
ipp	-11.1098
▁Gene	-11.1105
▁Bret	-11.1106
▁bowler	-11.1116
▁Swede	-11.1118
▁significan	-11.1119
▁DD	-11.1124
ood	-11.1127
▁demo	-11.1139
aya	-11.114
form	-11.1149
▁Doo	-11.1151
nfluence	-11.1157
▁opin	-11.1157
▁Yellow	-11.1157
▁contradict	-11.1157
▁isotope	-11.1157
▁occupy	-11.1157
▁Gardner	-11.1157
▁devastat	-11.1157
▁loud	-11.1157
▁Freak	-11.1158
▁cotton	-11.1158
▁Bush	-11.1158
▁Twenty	-11.1158
▁illness	-11.1159
▁Naza	-11.1159
▁outfit	-11.116
▁apply	-11.116
▁Monke	-11.1161
▁Hoover	-11.1161
▁epic	-11.1161
▁Health	-11.1161
▁Dahl	-11.1162
▁queen	-11.1162
▁Brand	-11.1163
▁Everton	-11.1167
▁provok	-11.1168
▁lifetime	-11.117
▁gravit	-11.1171
▁Toni	-11.1172
bbie	-11.1172
▁Shaw	-11.1173
▁Defen	-11.1176
▁Number	-11.1178
▁350	-11.1181
▁Hanna	-11.1185
anime	-11.1185
▁characteristic	-11.1185
▁Gael	-11.1188
mail	-11.119
▁revival	-11.119
ican	-11.1191
▁stress	-11.1196
▁Helen	-11.1197
▁funn	-11.1202
▁decrease	-11.1204
▁electron	-11.1208
▁113	-11.1208
▁astronomer	-11.122
▁Ok	-11.1222
▁Bat	-11.1223
▁universal	-11.124
wamp	-11.1244
▁revolution	-11.1254
▁Tog	-11.1269
▁Lamb	-11.1273
▁Site	-11.1276
▁Bird	-11.1279
gua	-11.1293
▁ode	-11.1299
saw	-11.1303
long	-11.1309
▁suggestion	-11.1309
▁123	-11.1314
▁Llo	-11.133
chase	-11.133
▁170	-11.1339
▁territori	-11.1342
fel	-11.1364
▁confront	-11.1385
▁displace	-11.1387
▁Opera	-11.139
▁sympath	-11.139
▁Communit	-11.139
▁Female	-11.139
▁dimension	-11.139
▁enzyme	-11.139
▁phenomen	-11.139
▁exclud	-11.139
▁widow	-11.139
▁Meteorolog	-11.139
▁enlist	-11.139
▁Palmyrene	-11.139
▁Corbet	-11.139
▁Seven	-11.139
▁dispers	-11.139
▁announcement	-11.139
▁competitive	-11.139
▁loop	-11.1391
blaze	-11.1391
▁McE	-11.1393
▁partnership	-11.1393
▁dislike	-11.1393
layer	-11.1394
▁strange	-11.1395
▁Raja	-11.1396
▁interception	-11.1397
▁Crusader	-11.1398
▁hide	-11.14
▁synonym	-11.14
▁Vander	-11.1401
▁examination	-11.1402
ntine	-11.1403
▁laugh	-11.1408
▁tide	-11.1411
▁demonstration	-11.142
▁Austrian	-11.1427
liot	-11.1427
udo	-11.1429
▁jun	-11.143
rypt	-11.1433
▁interact	-11.1434
arious	-11.1436
▁Drive	-11.144
gate	-11.144
rash	-11.1445
▁opt	-11.1447
▁facilitat	-11.1457
▁Kenn	-11.1465
▁Skin	-11.1493
▁painter	-11.1516
▁Gill	-11.1526
number	-11.1545
gud	-11.1547
▁Mk	-11.1571
AV	-11.1571
▁Historical	-11.1574
finit	-11.158
▁decreas	-11.158
38	-11.1591
▁fuse	-11.1592
▁Jerem	-11.1594
▁Hawai	-11.1617
burg	-11.1619
escription	-11.1625
ayne	-11.1627
▁prosecut	-11.1628
ã	-11.1628
▁Bulgaria	-11.1628
▁Eccleston	-11.1628
▁abroad	-11.1628
▁appreciat	-11.1628
▁patient	-11.1628
▁songwriter	-11.1628
▁symptom	-11.1628
▁Monument	-11.1628
▁sketch	-11.1628
reutz	-11.1628
▁reopen	-11.1628
▁Personal	-11.1628
▁Tokyo	-11.1628
▁chord	-11.1628
▁distant	-11.1628
▁galler	-11.1628
▁Scout	-11.1628
▁taste	-11.1628
▁Panzer	-11.1628
▁anchor	-11.1629
▁jewel	-11.1629
▁observator	-11.1629
▁circuit	-11.1629
▁guy	-11.1629
▁Vega	-11.1629
▁Comput	-11.1629
▁nineteen	-11.163
ła	-11.1631
▁Abd	-11.1631
▁seventeen	-11.1631
▁climb	-11.1632
▁molecul	-11.1632
▁dependent	-11.1633
▁allocat	-11.1634
▁Mauri	-11.1635
▁1840	-11.1636
▁myster	-11.1638
▁creature	-11.164
▁instruction	-11.1645
▁react	-11.1646
▁woodland	-11.1646
tigo	-11.1651
▁differentiat	-11.1652
▁Comic	-11.1655
orne	-11.1665
▁Lyn	-11.1666
▁platin	-11.167
▁pose	-11.1679
▁complaint	-11.1682
▁Federation	-11.1684
▁mobil	-11.1687
▁ambassador	-11.1697
rinth	-11.1706
▁batt	-11.1714
hai	-11.1726
jan	-11.1738
▁163	-11.1748
▁Typ	-11.1766
▁alternate	-11.1775
▁worse	-11.1781
▁Hur	-11.1787
▁formula	-11.1789
▁Wave	-11.1794
logy	-11.1801
▁bomber	-11.1804
half	-11.1812
▁Ku	-11.1816
▁Ron	-11.1824
▁Unit	-11.1825
▁Nine	-11.1852
▁Devi	-11.1855
lake	-11.1856
▁infect	-11.1859
evin	-11.1865
▁immigrat	-11.1872
▁Administrat	-11.1872
▁Heavy	-11.1872
▁Pakistan	-11.1872
▁Rothschild	-11.1872
▁Warrior	-11.1872
▁compensat	-11.1872
▁evolution	-11.1872
▁mortal	-11.1872
▁mortar	-11.1872
▁obstacle	-11.1872
▁utiliz	-11.1872
▁anticipat	-11.1872
▁inherit	-11.1872
▁overlook	-11.1872
▁sword	-11.1872
chute	-11.1872
▁Living	-11.1872
▁Mantell	-11.1872
etrieve	-11.1873
▁hamlet	-11.1873
▁consent	-11.1873
▁propagand	-11.1873
▁Kyra	-11.1873
ricket	-11.1873
▁knight	-11.1874
▁Batter	-11.1874
familiar	-11.1874
▁landscape	-11.1874
▁commitment	-11.1875
▁Protein	-11.1876
▁peninsula	-11.1877
loo	-11.1877
▁beaut	-11.1878
▁Knight	-11.1879
▁variable	-11.1881
▁peer	-11.1882
enic	-11.1889
▁Tide	-11.1892
khur	-11.1893
▁salt	-11.1899
▁rubber	-11.19
obra	-11.19
▁clothes	-11.1906
▁Romania	-11.1907
▁synthesize	-11.1909
▁Tar	-11.1915
active	-11.1917
▁salar	-11.1921
▁div	-11.1924
35	-11.1931
▁Cambodian	-11.1941
▁enforce	-11.1971
▁Born	-11.1972
▁105	-11.1976
▁shipment	-11.1977
▁remind	-11.1984
▁dual	-11.1991
▁rent	-11.1992
▁True	-11.2001
▁sack	-11.2006
AC	-11.2007
lliance	-11.2011
▁Berk	-11.2016
▁listener	-11.202
▁overlap	-11.2046
▁155	-11.2072
rania	-11.2072
course	-11.2076
▁165	-11.2077
▁univers	-11.2082
▁cancel	-11.2083
▁Beat	-11.2095
▁graduate	-11.2097
▁Cret	-11.21
▁scrap	-11.2103
clear	-11.2104
tact	-11.2104
▁Gan	-11.2108
scape	-11.2113
▁styl	-11.2115
▁230	-11.2119
▁Econom	-11.2122
▁Ultimate	-11.2122
▁administer	-11.2122
▁altarpiece	-11.2122
▁excellen	-11.2122
▁explicit	-11.2122
▁homosexual	-11.2122
▁immigrant	-11.2122
▁inflict	-11.2122
▁irregular	-11.2122
▁mutual	-11.2122
▁pyramid	-11.2122
▁warrior	-11.2122
▁enclos	-11.2122
▁manipulat	-11.2122
▁motivat	-11.2122
▁Bernard	-11.2122
▁flaw	-11.2122
▁Brenda	-11.2122
▁charm	-11.2122
▁Importan	-11.2122
▁commentator	-11.2122
▁vault	-11.2122
▁garner	-11.2122
▁feud	-11.2122
▁Pirate	-11.2123
▁Technolog	-11.2123
▁keyboard	-11.2123
▁Kō	-11.2124
▁bombardment	-11.2124
▁Manuel	-11.2124
▁hamper	-11.2125
▁descendant	-11.2125
▁mytholog	-11.2126
▁vocalist	-11.2128
▁legac	-11.2132
▁Eve	-11.2134
▁specializ	-11.2137
▁secretary	-11.2139
▁Grace	-11.214
▁Nova	-11.2143
▁Oak	-11.2148
▁probe	-11.2148
▁illustration	-11.215
iety	-11.2153
▁Mix	-11.2153
▁timber	-11.2155
▁Join	-11.216
stabili	-11.2162
▁gang	-11.2163
▁noise	-11.2163
▁donation	-11.2164
▁ext	-11.2178
▁Ott	-11.2185
▁tin	-11.2191
▁Rein	-11.22
▁mineral	-11.2201
▁Aust	-11.2201
▁harm	-11.2202
garet	-11.2205
▁Sull	-11.221
▁cutt	-11.2212
emble	-11.2221
CU	-11.2229
▁Sid	-11.223
roller	-11.2231
▁curv	-11.2233
▁Europa	-11.2235
ffect	-11.2235
▁slate	-11.2244
▁verte	-11.2247
▁revolutionar	-11.227
rmal	-11.2283
lant	-11.232
▁Alde	-11.2321
tze	-11.2344
point	-11.2345
▁Dick	-11.2352
tail	-11.236
▁Rhode	-11.2361
ikk	-11.2363
▁ensur	-11.2368
season	-11.2371
▁dri	-11.2371
oreign	-11.2373
▁cor	-11.2374
▁Cruise	-11.2378
bracelet	-11.2378
▁Baptist	-11.2378
▁Campaign	-11.2378
▁Performance	-11.2378
▁Subsequent	-11.2378
▁Wrestling	-11.2378
▁accumulat	-11.2378
▁aerodrome	-11.2378
▁discipline	-11.2378
▁explosion	-11.2378
▁fragil	-11.2378
▁frequenc	-11.2378
▁liquid	-11.2378
▁neutron	-11.2378
▁participant	-11.2378
▁zombie	-11.2378
▁propell	-11.2378
▁confess	-11.2378
▁hygro	-11.2378
▁Picture	-11.2378
▁Sultan	-11.2378
▁cooperati	-11.2378
▁eagle	-11.2378
▁suprem	-11.2379
▁lime	-11.2379
▁snake	-11.2379
▁monster	-11.2379
▁Bosnia	-11.2379
▁kickoff	-11.2379
ockey	-11.2379
▁clinic	-11.238
▁variant	-11.2382
▁Wiki	-11.2383
▁tonne	-11.2384
▁apartment	-11.2387
▁Sag	-11.239
▁Coach	-11.2391
▁kid	-11.2392
▁eastward	-11.2395
▁Eg	-11.2396
▁speculation	-11.2399
▁240	-11.2401
▁endorse	-11.2407
ndhe	-11.2411
▁Ruth	-11.2416
▁reward	-11.2429
▁Ground	-11.246
▁mac	-11.2464
lik	-11.2464
iness	-11.2465
▁faction	-11.2468
▁literal	-11.2469
▁experimental	-11.2475
▁integrat	-11.2485
▁fighter	-11.2486
▁Set	-11.2505
ographic	-11.2508
▁Spi	-11.2521
some	-11.2537
▁Thi	-11.2541
ask	-11.2543
▁Ech	-11.2548
gott	-11.2557
▁pet	-11.2559
▁smoke	-11.2561
▁spott	-11.2564
▁passion	-11.2567
▁Profess	-11.2579
▁Give	-11.2585
ntimon	-11.2606
▁Eye	-11.2614
egian	-11.2624
▁congregation	-11.2628
found	-11.2636
▁consult	-11.264
▁Hebr	-11.2641
ctress	-11.2641
mpact	-11.2641
ì	-11.2642
▁brutal	-11.2642
▁Return	-11.2642
▁brilliant	-11.2642
▁denomination	-11.2642
▁juvenile	-11.2642
▁perception	-11.2642
▁redesign	-11.2642
▁reprint	-11.2642
▁turbine	-11.2642
ư	-11.2642
▁penetrat	-11.2642
▁sacrifice	-11.2642
▁Shadow	-11.2642
▁quantit	-11.2642
▁reagent	-11.2642
▁sibling	-11.2642
▁Thak	-11.2642
▁detach	-11.2642
▁ancestor	-11.2642
▁lyrical	-11.2642
▁moist	-11.2642
▁ceratopsian	-11.2642
▁Shim	-11.2642
▁grain	-11.2643
▁Ruler	-11.2645
▁vital	-11.2645
▁trough	-11.2646
▁empt	-11.2646
▁thrill	-11.2646
▁pump	-11.2646
▁mask	-11.2646
thodo	-11.2647
▁definite	-11.2648
▁Singh	-11.2648
iocese	-11.2649
▁stain	-11.2652
▁repeat	-11.2653
▁Judi	-11.2655
▁exile	-11.2657
▁Litera	-11.2657
weight	-11.2659
▁Steel	-11.2659
▁1901	-11.2661
▁leak	-11.2662
▁decoration	-11.2662
▁rig	-11.2664
▁Father	-11.2669
▁Medal	-11.2672
▁Bright	-11.2684
▁sailor	-11.2688
▁Dw	-11.269
keeper	-11.2691
iamond	-11.2705
▁dust	-11.2712
▁glo	-11.2716
duction	-11.2721
▁Lev	-11.2721
▁provinc	-11.2726
▁Moon	-11.274
▁expense	-11.2757
▁fat	-11.2758
Clock	-11.2772
▁Male	-11.2791
▁Joan	-11.2794
▁chronicle	-11.28
▁Call	-11.2803
rake	-11.2806
RE	-11.281
▁popul	-11.2815
▁Past	-11.2815
▁coincide	-11.2816
▁resid	-11.282
resh	-11.2834
▁rape	-11.284
circula	-11.2852
▁Full	-11.2868
▁Hair	-11.2869
▁Cuba	-11.287
▁remo	-11.2877
▁admit	-11.2878
aunt	-11.2881
▁rubb	-11.2881
▁Davie	-11.2898
▁educat	-11.2899
▁disturb	-11.2909
mpress	-11.2912
▁bulk	-11.2912
▁consolidat	-11.2912
▁Holocaust	-11.2912
▁acoustic	-11.2912
▁decommission	-11.2912
▁enormous	-11.2912
▁mechanism	-11.2912
▁neutrino	-11.2912
▁transcription	-11.2912
▁celebrit	-11.2912
▁motif	-11.2912
▁Voice	-11.2912
▁zinc	-11.2912
▁conscious	-11.2912
▁rebellion	-11.2912
▁swimm	-11.2912
▁Legend	-11.2912
▁subsidi	-11.2912
▁Lucas	-11.2912
▁parasite	-11.2912
▁sugar	-11.2912
▁Guinea	-11.2912
▁Hawk	-11.2912
▁shallow	-11.2913
▁Platt	-11.2913
▁electro	-11.2913
▁convey	-11.2913
aulk	-11.2913
▁chemist	-11.2914
▁Stoke	-11.2914
▁plast	-11.2915
▁spawn	-11.2915
▁Curt	-11.2915
Z	-11.292
▁carrier	-11.2921
gna	-11.2921
▁gill	-11.2925
▁flash	-11.2927
ensus	-11.2927
▁Montre	-11.2928
▁Metro	-11.2933
▁Alger	-11.2935
▁pursui	-11.2938
▁casua	-11.2942
▁rescu	-11.2943
▁Pagan	-11.2947
▁averag	-11.2947
▁Baron	-11.2952
▁Hunter	-11.2958
voy	-11.2958
fri	-11.2967
strum	-11.2992
ić	-11.2997
▁114	-11.3007
▁Luci	-11.3013
▁angr	-11.3015
▁Dian	-11.3018
▁assur	-11.3023
▁survival	-11.3025
▁Galli	-11.3035
▁List	-11.3039
▁Twin	-11.3044
▁lesson	-11.3055
▁geolog	-11.3086
arch	-11.3107
▁Read	-11.3108
▁Sub	-11.3113
nyi	-11.3136
▁whi	-11.3139
▁Stea	-11.314
vig	-11.3146
▁Mode	-11.3172
bling	-11.3174
▁pap	-11.3175
▁Demo	-11.3189
▁hostil	-11.3189
▁lumino	-11.319
⁄	-11.319
▁Cloud	-11.319
▁Composition	-11.319
▁Glanville	-11.319
▁Official	-11.319
▁accelerat	-11.319
▁activist	-11.319
▁alphabet	-11.319
▁complement	-11.319
▁compromise	-11.319
▁crush	-11.319
▁millimeter	-11.319
▁prototype	-11.319
▁Rapid	-11.319
▁autobiograph	-11.319
▁veteran	-11.319
▁Lüt	-11.319
▁witch	-11.319
▁lumber	-11.319
▁welcome	-11.319
▁Liberal	-11.319
▁Guild	-11.319
▁pledg	-11.319
▁exterior	-11.319
▁Banksia	-11.319
▁unrest	-11.319
▁Select	-11.319
▁pipe	-11.3191
▁snow	-11.3191
▁disagree	-11.3191
▁gender	-11.3191
▁dodo	-11.3191
▁sociolog	-11.3192
▁Brack	-11.3192
▁font	-11.3192
▁Hockey	-11.3192
▁radical	-11.3193
▁Large	-11.3194
▁Graham	-11.3194
▁replica	-11.3195
▁mood	-11.3196
herent	-11.3197
▁Awa	-11.3197
▁Capit	-11.3198
▁Plain	-11.32
▁patch	-11.3201
consi	-11.3201
▁Hib	-11.3202
▁deput	-11.3203
▁Train	-11.3206
▁mock	-11.3207
▁scrapp	-11.3211
▁payment	-11.3212
▁Poet	-11.3217
▁Bun	-11.3217
▁insert	-11.3217
▁1800	-11.322
▁Box	-11.3222
tymolog	-11.3223
▁doll	-11.3224
▁odd	-11.3224
▁Shin	-11.324
▁Cott	-11.3243
▁attraction	-11.3245
break	-11.3247
box	-11.3248
structur	-11.3249
▁Nic	-11.3252
rí	-11.3259
atop	-11.3269
▁intelligent	-11.3279
▁None	-11.3286
▁electrical	-11.3291
nmark	-11.3293
asco	-11.3294
▁customer	-11.3294
▁trio	-11.3309
▁summ	-11.3314
▁Blu	-11.3323
▁characteris	-11.334
▁Tai	-11.3359
▁Jag	-11.3376
▁reserv	-11.3381
▁Nap	-11.3387
▁hunter	-11.3394
▁Indie	-11.3395
▁Lab	-11.3397
▁protester	-11.3399
grat	-11.3404
▁vertic	-11.3409
▁Loc	-11.3415
▁Austria	-11.3435
ergy	-11.3449
lesh	-11.3463
▁Direct	-11.3463
▁excess	-11.3468
▁Qedar	-11.3474
minent	-11.3475
▁autonom	-11.3475
▁Bhairava	-11.3475
▁MVP	-11.3475
▁deteriorat	-11.3475
▁incomplete	-11.3475
▁plague	-11.3475
▁sanctuar	-11.3475
▁shield	-11.3475
▁villain	-11.3475
▁clergy	-11.3475
▁explod	-11.3475
▁staple	-11.3475
▁surpass	-11.3475
▁saving	-11.3475
▁conquer	-11.3475
▁ensemble	-11.3475
powder	-11.3475
▁Region	-11.3475
▁Ronald	-11.3475
▁Adult	-11.3476
▁bonus	-11.3476
▁reunit	-11.3476
▁Hyde	-11.3476
▁mysterious	-11.3476
▁quiet	-11.3476
htw	-11.3476
▁Terroris	-11.3476
▁Small	-11.3477
▁spark	-11.3477
▁fortification	-11.3477
▁fixture	-11.3478
▁toxic	-11.3478
▁trunk	-11.3478
▁Caval	-11.3482
fric	-11.3488
▁1904	-11.3491
▁pink	-11.3494
▁invitation	-11.3496
▁trap	-11.3501
▁Trav	-11.3502
▁stag	-11.3503
▁airfield	-11.3504
▁nice	-11.3505
▁warship	-11.3505
▁Still	-11.3507
ME	-11.3511
incar	-11.3513
▁declaration	-11.3514
fell	-11.3514
ón	-11.3516
lov	-11.3522
▁striker	-11.3525
▁Rafa	-11.3528
▁Medic	-11.3529
▁Oliv	-11.353
▁Guin	-11.3532
▁Tong	-11.3533
ound	-11.3542
▁escap	-11.3545
apoli	-11.3547
▁Popula	-11.3549
▁Victor	-11.355
stol	-11.3551
emic	-11.3557
oval	-11.3562
▁torn	-11.3569
piece	-11.3574
▁portrayal	-11.3584
ourage	-11.3588
bbar	-11.3589
ours	-11.3593
▁Petr	-11.3604
egg	-11.361
▁commun	-11.3614
▁Hip	-11.3615
arnest	-11.3631
avan	-11.3632
avia	-11.3632
▁cable	-11.3643
▁induc	-11.3655
▁Darwi	-11.3658
▁Susan	-11.3661
cko	-11.3672
cou	-11.3678
▁Pla	-11.368
▁rebuild	-11.3682
cester	-11.3693
lves	-11.3706
▁flee	-11.374
anya	-11.3744
▁Reviewer	-11.3745
EA	-11.3768
ailroad	-11.3768
ffensive	-11.3769
→	-11.3769
▁Nevada	-11.3769
▁Sword	-11.3769
▁Ukrain	-11.3769
▁enlarge	-11.3769
▁guarantee	-11.3769
▁prevail	-11.3769
▁scenario	-11.3769
▁shrub	-11.3769
▁disorder	-11.3769
▁precise	-11.3769
▁rendition	-11.3769
▁stanza	-11.3769
▁brood	-11.3769
▁Reserve	-11.3769
▁landmark	-11.3769
▁Remix	-11.377
▁amphibi	-11.377
▁Leban	-11.377
▁Andrea	-11.377
▁precipitat	-11.377
▁judo	-11.377
▁imperial	-11.377
▁naked	-11.377
▁reperto	-11.377
▁lobb	-11.3771
▁Politic	-11.3771
aki	-11.3771
▁drill	-11.3772
▁Doctor	-11.3772
urnpike	-11.3772
▁ascend	-11.3773
▁Happ	-11.3774
▁careful	-11.3774
▁Proto	-11.3779
aja	-11.3779
▁genuine	-11.378
▁tear	-11.3781
▁summon	-11.3782
▁friendship	-11.3782
▁guitarist	-11.3783
▁Drama	-11.3783
▁Día	-11.379
▁125	-11.3792
▁Right	-11.3795
▁kit	-11.3795
▁trait	-11.3798
Style	-11.38
▁Crab	-11.3806
▁Rover	-11.3806
umi	-11.3809
▁companion	-11.3825
▁Marsh	-11.3831
▁stepp	-11.3842
▁habit	-11.3843
▁Syn	-11.386
Art	-11.3864
▁04	-11.3884
▁Chang	-11.3886
fire	-11.3897
▁flu	-11.3902
▁pest	-11.3907
▁typ	-11.3909
▁cruise	-11.3919
▁Kara	-11.3927
▁explorer	-11.3936
ject	-11.3945
▁Reform	-11.3946
▁Want	-11.396
▁accidental	-11.3969
▁Barre	-11.3972
▁Rama	-11.3973
▁117	-11.3983
▁Lou	-11.4039
▁Imb	-11.4046
ountain	-11.4055
▁Jenn	-11.4056
xperience	-11.4066
eginning	-11.4069
▁Pete	-11.4071
▁vulnerab	-11.4072
▁Gabriel	-11.4072
lotilla	-11.4072
ơ	-11.4072
▁Assyrian	-11.4072
▁Colombia	-11.4072
▁Malaysia	-11.4072
▁Napoleon	-11.4072
▁Philippine	-11.4072
▁Uyghur	-11.4072
▁cruci	-11.4072
▁neglect	-11.4072
▁nephew	-11.4072
▁stimulat	-11.4072
▁FIT	-11.4073
▁psycholog	-11.4073
▁dissolv	-11.4073
▁comprehensi	-11.4073
▁Transit	-11.4073
▁stingray	-11.4073
▁conceive	-11.4073
iscount	-11.4073
▁puma	-11.4073
▁Metropoli	-11.4073
▁evaluat	-11.4073
▁Constitution	-11.4073
▁petition	-11.4073
▁domain	-11.4073
▁ancestr	-11.4073
NES	-11.4073
▁enroll	-11.4073
▁romance	-11.4073
▁afford	-11.4073
▁Vista	-11.4074
▁bypass	-11.4074
▁counterpart	-11.4075
▁dictator	-11.4075
quake	-11.4076
▁borrow	-11.4076
▁favourite	-11.4076
▁hint	-11.4076
▁census	-11.4077
bourn	-11.4077
▁rejoin	-11.4077
▁retail	-11.4078
▁parade	-11.4079
▁Emil	-11.4082
▁aisle	-11.4082
▁Senat	-11.4084
▁deployment	-11.4085
▁strikeout	-11.4087
▁migration	-11.409
▁Yang	-11.4093
▁wake	-11.4094
astra	-11.4094
cash	-11.4097
▁Indu	-11.41
Chuck	-11.4102
▁populat	-11.4107
▁lord	-11.4108
ontrol	-11.4114
▁Boat	-11.4114
▁Bour	-11.4115
▁Officer	-11.412
▁Sign	-11.4122
▁CG	-11.4125
▁ordinar	-11.4128
▁Chamber	-11.4133
▁Julian	-11.4134
▁EP	-11.4138
▁soph	-11.4146
icken	-11.4154
▁Elli	-11.4158
join	-11.4161
▁matur	-11.4163
iya	-11.4171
lix	-11.4178
▁Comb	-11.4187
Nichol	-11.4193
▁Month	-11.4198
space	-11.4206
ouli	-11.4209
vana	-11.4237
IAA	-11.425
▁lun	-11.425
pite	-11.4271
▁Arabia	-11.4279
ontemporary	-11.4283
cub	-11.43
▁astronom	-11.43
▁neo	-11.4304
▁devi	-11.4308
▁Domini	-11.4321
▁Walla	-11.4324
▁commentar	-11.4327
ó	-11.434
▁summar	-11.4353
▁resist	-11.4355
Lear	-11.4377
▁compil	-11.4379
axonom	-11.4382
▁Crow	-11.4383
Í	-11.4385
ñ	-11.4385
▁Ganganelli	-11.4385
▁Surviv	-11.4385
▁disguise	-11.4385
▁guerrilla	-11.4385
▁mirror	-11.4385
▁obscur	-11.4385
▁reconcil	-11.4385
▁boiler	-11.4385
▁palace	-11.4385
▁simulat	-11.4385
▁737	-11.4385
▁Feeling	-11.4385
▁transmitt	-11.4385
▁prestig	-11.4385
▁flame	-11.4385
▁riot	-11.4385
▁Northwest	-11.4385
▁metallic	-11.4385
▁sweet	-11.4385
▁Concert	-11.4385
▁ceiling	-11.4385
▁equat	-11.4385
▁Cadet	-11.4385
▁particle	-11.4385
▁McMa	-11.4386
▁Apart	-11.4386
bris	-11.4386
▁Support	-11.4386
▁terrorist	-11.4386
▁blend	-11.4386
▁Dead	-11.4386
▁Bloom	-11.4387
▁alarm	-11.4387
▁labour	-11.4387
▁outstanding	-11.4387
iscus	-11.4387
▁drift	-11.4387
▁crystal	-11.4388
▁grace	-11.4388
▁Belt	-11.4388
▁blockade	-11.439
▁Libert	-11.439
▁Outside	-11.4391
▁Sri	-11.4392
▁milk	-11.4393
hesh	-11.4395
▁Level	-11.4395
▁Merri	-11.4395
▁Ferd	-11.4396
▁casemate	-11.4396
▁Trade	-11.4398
▁Choi	-11.4399
gow	-11.44
▁Sidon	-11.4402
▁conviction	-11.4405
▁Shu	-11.4406
▁innocen	-11.4408
▁outcome	-11.441
▁Kick	-11.4412
▁packag	-11.4413
▁flock	-11.4415
▁wire	-11.442
▁poetic	-11.4423
▁collector	-11.4424
▁tur	-11.4426
▁muscle	-11.4426
leans	-11.4426
▁backward	-11.443
▁Kid	-11.4432
atti	-11.4434
▁operator	-11.4441
OS	-11.4448
▁Moro	-11.4454
rator	-11.4459
▁shortage	-11.4467
rosaur	-11.4471
▁fatalit	-11.4472
llosaur	-11.4493
▁Tell	-11.4495
▁Meri	-11.4503
hamp	-11.4527
anni	-11.4546
▁ecolog	-11.455
▁antiquit	-11.455
quir	-11.4563
▁Mara	-11.46
▁Europ	-11.4627
▁Laur	-11.4646
▁Hunt	-11.4659
pani	-11.4661
▁violat	-11.4695
▁clima	-11.4705
▁commerc	-11.4706
veloc	-11.4707
▁necessit	-11.4708
▁Jenkins	-11.4708
▁Montenegr	-11.4708
▁Symphon	-11.4708
▁Tribble	-11.4708
▁Vishnu	-11.4708
▁abnormal	-11.4708
▁coffee	-11.4708
▁collision	-11.4708
▁desperate	-11.4708
▁disciple	-11.4708
▁envelope	-11.4708
▁incursion	-11.4708
▁oblig	-11.4708
▁pulp	-11.4708
▁telephone	-11.4708
▁virtue	-11.4708
▁femini	-11.4708
▁Lorenz	-11.4708
▁tutor	-11.4708
▁wreck	-11.4708
▁demographic	-11.4708
▁sediment	-11.4708
▁sweep	-11.4708
▁Regard	-11.4708
▁clip	-11.4708
▁rumor	-11.4708
▁Saxon	-11.4708
▁remake	-11.4708
▁adjust	-11.4708
▁ornament	-11.4708
▁ambush	-11.4708
▁brain	-11.4708
▁civilization	-11.4709
▁Buddhist	-11.4709
▁Grant	-11.471
▁Buen	-11.4711
▁Chop	-11.4712
▁weakness	-11.4713
▁Klein	-11.4713
▁Present	-11.4714
▁Sister	-11.4716
▁arise	-11.4716
▁dubi	-11.4719
▁Stew	-11.4719
izard	-11.4721
▁relay	-11.4722
orning	-11.4724
▁unexpected	-11.4725
▁Brother	-11.4726
▁binar	-11.4729
▁hung	-11.4729
▁Off	-11.4733
ipel	-11.4741
▁descen	-11.4743
▁ambition	-11.4745
▁Gross	-11.4749
pector	-11.4752
▁Jeremi	-11.4755
▁Delan	-11.4759
▁emit	-11.4781
▁chancel	-11.4783
▁DE	-11.4789
▁stole	-11.4798
ongo	-11.4799
roke	-11.4838
laine	-11.4847
▁ordina	-11.4852
PR	-11.4858
▁identi	-11.4865
▁temper	-11.4866
▁remin	-11.4893
jib	-11.4959
▁Superma	-11.4969
▁pad	-11.4969
ghan	-11.4973
TA	-11.4995
DR	-11.502
▁slip	-11.5026
▁prefer	-11.5032
▁mast	-11.5032
xecutive	-11.5034
onvention	-11.5037
▁Locat	-11.5038
appen	-11.504
oulevard	-11.5041
▁Amylostere	-11.5041
▁Representative	-11.5041
▁affiliate	-11.5041
▁antagonist	-11.5041
▁counterattack	-11.5041
▁memoir	-11.5041
▁solitaire	-11.5041
▁fulfill	-11.5041
▁ghost	-11.5041
▁hypothesi	-11.5041
▁lifestyle	-11.5041
▁premise	-11.5041
▁proclaim	-11.5041
▁Spirit	-11.5041
▁censor	-11.5041
▁abolish	-11.5041
▁barrel	-11.5041
▁drag	-11.5041
▁intensify	-11.5041
▁conifer	-11.5041
▁PopMa	-11.5041
▁Karl	-11.5041
elope	-11.5042
shmi	-11.5042
▁logistic	-11.5042
▁Arika	-11.5042
▁amaz	-11.5043
▁Student	-11.5043
▁presum	-11.5044
▁stabiliz	-11.5044
rivate	-11.5044
▁legislature	-11.5045
▁terrace	-11.5045
▁navigation	-11.5046
▁gunner	-11.505
▁Eps	-11.5053
▁Damage	-11.5056
▁vint	-11.5057
▁troop	-11.5057
▁fatal	-11.5058
▁accusation	-11.5061
▁specialist	-11.5062
▁recommendation	-11.5063
▁Sau	-11.5064
▁manual	-11.5066
dining	-11.5071
▁Barne	-11.5076
▁probab	-11.5087
▁assassin	-11.51
▁Timb	-11.5101
▁nau	-11.5103
elite	-11.5104
ivor	-11.5112
▁conspira	-11.5115
▁bath	-11.514
opia	-11.5166
SU	-11.5172
▁chronic	-11.5181
hio	-11.5195
▁terminat	-11.5204
▁musc	-11.5208
GB	-11.521
▁Lui	-11.5224
▁Staff	-11.5224
orrow	-11.5232
▁racis	-11.5236
cious	-11.5249
▁tir	-11.5253
▁impli	-11.5268
▁bold	-11.5271
RIA	-11.531
cepti	-11.5319
▁plat	-11.5325
▁Div	-11.5327
enou	-11.5332
▁synthesi	-11.5334
▁Marv	-11.5341
▁Commo	-11.5352
▁Character	-11.5365
lectronic	-11.5379
▁toleran	-11.5381
proxim	-11.5386
▁Consequen	-11.5386
▁Destroyer	-11.5386
▁Ferrari	-11.5386
▁Moritz	-11.5386
▁Treasur	-11.5386
▁alcohol	-11.5386
▁corridor	-11.5386
▁decisive	-11.5386
▁extraordinar	-11.5386
▁incredibl	-11.5386
▁lawsuit	-11.5386
▁recipe	-11.5386
▁gorilla	-11.5386
rnissart	-11.5386
▁conquest	-11.5386
▁routine	-11.5386
▁signature	-11.5386
▁crack	-11.5386
▁enact	-11.5386
▁harsh	-11.5386
▁parrot	-11.5386
▁Draft	-11.5386
▁Flag	-11.5386
comfortabl	-11.5386
▁marble	-11.5386
▁Electric	-11.5386
▁coalition	-11.5387
sboro	-11.5387
▁contend	-11.5387
▁Tape	-11.5388
▁bronze	-11.5388
▁Fear	-11.5391
▁interfer	-11.5392
oulder	-11.5393
▁crusader	-11.5394
▁confrontation	-11.5395
▁Southeast	-11.5395
▁alert	-11.5396
▁divert	-11.5396
▁Theater	-11.5396
▁Montag	-11.5396
ovac	-11.5397
▁shoe	-11.5397
▁expectation	-11.5402
▁automatic	-11.5404
▁bush	-11.5408
▁Slea	-11.5409
▁Chance	-11.5417
▁Clay	-11.5417
▁1893	-11.5417
▁outlet	-11.5417
▁bread	-11.5424
▁plantation	-11.5427
▁Loyal	-11.5428
▁Tuck	-11.5432
▁revision	-11.5433
▁boss	-11.5436
merg	-11.5445
▁RO	-11.5474
▁symbolic	-11.5484
▁Aki	-11.5488
witt	-11.5489
▁harmon	-11.5493
▁readi	-11.5495
resco	-11.5496
▁subordinate	-11.5503
troph	-11.5508
▁Josh	-11.5518
▁Austr	-11.5519
FL	-11.552
▁Blo	-11.554
▁Airb	-11.5564
▁Origin	-11.5582
pple	-11.5595
rchbishop	-11.5604
Rou	-11.5623
▁conform	-11.5632
ometric	-11.5649
view	-11.5652
develop	-11.5653
▁pac	-11.5653
music	-11.5659
ö	-11.5685
▁Levin	-11.5688
▁commit	-11.5689
rban	-11.5691
clam	-11.5692
rize	-11.5698
▁Jai	-11.571
▁excavat	-11.573
▁communicat	-11.573
▁prefect	-11.5742
▁Expedition	-11.5743
▁ANZAC	-11.5743
▁burrow	-11.5743
▁horizontal	-11.5743
▁phylogen	-11.5743
▁presbyterian	-11.5743
▁sulfide	-11.5743
▁telescope	-11.5743
☉	-11.5743
▁barrack	-11.5743
▁pagoda	-11.5743
▁gendarme	-11.5743
▁repetiti	-11.5743
▁Religio	-11.5743
▁breach	-11.5743
▁swallow	-11.5743
▁uncover	-11.5743
▁fierce	-11.5743
ootleg	-11.5743
▁cylind	-11.5743
▁terribl	-11.5743
▁stalk	-11.5743
▁drummer	-11.5743
▁glider	-11.5743
▁analyze	-11.5743
▁uneven	-11.5743
▁Yoko	-11.5743
▁Talk	-11.5744
▁fluid	-11.5745
▁Nik	-11.5745
▁denot	-11.5745
▁accent	-11.5745
ière	-11.5745
▁Analys	-11.5745
▁shall	-11.5746
▁Condom	-11.5747
▁missile	-11.5747
▁Harmon	-11.5748
▁lamb	-11.5748
▁Motor	-11.5748
▁screenplay	-11.5748
▁Ragh	-11.5748
▁Dodge	-11.5751
▁tough	-11.5752
▁shout	-11.5753
▁besieg	-11.5754
▁Diamond	-11.5754
▁estuar	-11.5755
▁hatch	-11.5755
▁uprising	-11.576
▁slipp	-11.5762
▁Half	-11.5764
▁retro	-11.5764
▁statute	-11.5764
▁grassland	-11.5765
▁insult	-11.5765
▁jam	-11.5767
▁texture	-11.5768
▁Market	-11.5768
▁worri	-11.5774
▁servant	-11.5776
▁mandat	-11.5791
logical	-11.5799
▁goat	-11.5809
olat	-11.581
▁Fann	-11.5814
▁forecast	-11.5827
erdict	-11.583
meat	-11.5834
▁Brav	-11.584
▁inventor	-11.5855
▁Loch	-11.5856
▁Ami	-11.586
▁Genera	-11.5869
ambu	-11.5889
▁MP	-11.5898
trud	-11.5904
▁Schu	-11.5923
visor	-11.5938
▁Micros	-11.5938
▁oxid	-11.595
telligen	-11.5968
▁Domo	-11.5999
desh	-11.6006
OM	-11.6027
▁Llan	-11.603
▁Mov	-11.6034
▁gran	-11.6039
▁judg	-11.6046
▁Whit	-11.6052
▁Kash	-11.6054
▁academ	-11.6107
▁chem	-11.611
specifi	-11.611
FC	-11.6111
agh	-11.6112
▁afr	-11.6112
▁Advance	-11.6113
▁Current	-11.6113
▁Recreation	-11.6113
▁Scandinavia	-11.6113
▁critique	-11.6113
▁explanation	-11.6113
▁harvest	-11.6113
▁hemmema	-11.6113
▁kitchen	-11.6113
▁recount	-11.6113
▁chromosom	-11.6113
▁corrupt	-11.6113
▁drown	-11.6113
▁eclip	-11.6113
▁militia	-11.6113
▁retaliat	-11.6113
▁syād	-11.6113
▁trademark	-11.6113
▁Crush	-11.6113
▁hurdle	-11.6113
▁cartoon	-11.6113
▁Pioneer	-11.6113
▁throat	-11.6113
▁Chemical	-11.6113
▁relax	-11.6113
▁triumph	-11.6113
▁symmetr	-11.6113
▁venom	-11.6113
▁silent	-11.6113
▁contracepti	-11.6113
▁compartment	-11.6113
▁jail	-11.6114
▁Fletch	-11.6114
▁conceal	-11.6114
▁Harsha	-11.6114
▁prevalen	-11.6114
▁Element	-11.6114
hawk	-11.6114
▁Kahn	-11.6114
▁Horizon	-11.6115
▁fumble	-11.6115
▁sitcom	-11.6115
▁viewpoint	-11.6115
▁Mitsu	-11.6115
zzo	-11.6116
▁Hospitaller	-11.6116
▁spike	-11.6116
▁distract	-11.6116
▁robot	-11.6117
▁capabilit	-11.6117
▁racial	-11.6117
▁discard	-11.6117
▁Metall	-11.612
▁Winter	-11.612
▁forget	-11.612
▁Yama	-11.6121
avanna	-11.6123
▁Phillip	-11.6124
precedent	-11.613
▁thread	-11.613
▁Harbo	-11.6131
▁Clement	-11.6131
▁Trip	-11.6131
▁kiss	-11.6132
▁1863	-11.6133
▁alteration	-11.6134
▁clash	-11.6138
▁delight	-11.6138
▁Chile	-11.6138
▁Vol	-11.614
▁rocket	-11.6148
▁mansion	-11.6152
orkshop	-11.6156
▁Hond	-11.6167
▁Rook	-11.6176
▁nitr	-11.6182
▁vine	-11.6209
▁pore	-11.6209
harp	-11.6211
▁taxi	-11.6219
opsi	-11.622
evel	-11.626
▁Maid	-11.6266
ncos	-11.6276
▁Grec	-11.6323
ayana	-11.6324
eacon	-11.633
▁Geograph	-11.6336
▁corresponden	-11.6365
castle	-11.6371
▁Develop	-11.6377
▁lab	-11.6415
olia	-11.6429
FO	-11.6442
▁Traf	-11.6444
▁permit	-11.6451
▁ambitio	-11.6456
assign	-11.6463
limit	-11.6465
continent	-11.6466
doubt	-11.6467
cycle	-11.6468
continu	-11.647
▁contra	-11.647
critic	-11.6476
rsenal	-11.6481
PF	-11.6484
▁depress	-11.6485
▁micro	-11.6493
▁McDo	-11.6494
istinguish	-11.6495
▁Hoysala	-11.6498
▁Immortal	-11.6498
▁Princip	-11.6498
▁Veeru	-11.6498
▁algorithm	-11.6498
▁allegation	-11.6498
▁treasure	-11.6498
elanchol	-11.6498
▁Complete	-11.6498
▁glaci	-11.6498
▁testimon	-11.6498
▁Fruit	-11.6498
▁Source	-11.6498
▁Gambi	-11.6498
▁outlaw	-11.6498
▁Volume	-11.6498
▁virus	-11.6498
▁ylide	-11.6498
▁Alexandr	-11.6498
▁proof	-11.6498
▁blast	-11.6498
▁blind	-11.6498
▁bibli	-11.6498
▁Manager	-11.6498
▁Viking	-11.6498
▁ridicul	-11.6498
▁elegan	-11.6498
pectator	-11.6498
▁Wilfri	-11.6498
▁hyph	-11.6498
arnival	-11.6499
▁vacan	-11.6499
▁Valentin	-11.6499
▁imitat	-11.6499
▁Concept	-11.6499
▁Confederate	-11.65
▁profound	-11.65
▁recit	-11.65
▁prolong	-11.65
▁cyto	-11.65
▁facult	-11.65
▁annoy	-11.6501
▁Protect	-11.6502
▁Describ	-11.6502
▁Connecti	-11.6502
▁steer	-11.6503
▁peaceful	-11.6503
▁fortifi	-11.6503
▁dirt	-11.6504
▁facade	-11.6504
azi	-11.6506
▁accomplishment	-11.6507
smith	-11.6508
▁renovation	-11.6509
▁dull	-11.6509
atomic	-11.651
▁monaster	-11.651
▁Rush	-11.6511
▁teenager	-11.6511
▁layout	-11.6514
▁morpholog	-11.6519
▁roost	-11.6519
▁750	-11.6519
▁bug	-11.6519
▁installation	-11.652
▁attendant	-11.652
▁inclin	-11.6524
▁township	-11.6526
▁Barra	-11.653
▁exercis	-11.6562
tribution	-11.6564
▁elde	-11.658
▁Industri	-11.6597
LC	-11.66
▁marine	-11.6609
▁merc	-11.6618
▁smok	-11.6626
rtz	-11.6645
▁Isi	-11.6652
niec	-11.6655
▁Jenni	-11.6659
▁Make	-11.6661
iett	-11.6672
▁Notabl	-11.6688
otal	-11.6707
▁glob	-11.6721
▁Glo	-11.6721
▁accord	-11.6777
▁Pipe	-11.6789
▁extract	-11.679
▁Brigad	-11.6803
▁Hoo	-11.6817
▁panthe	-11.6836
robe	-11.686
▁Author	-11.6872
anagi	-11.6881
▁sect	-11.6883
▁intercept	-11.6885
▁Isla	-11.6891
▁Willi	-11.6894
▁harbo	-11.6895
▁Hungar	-11.6897
▁Investigation	-11.6898
▁Odysse	-11.6898
▁Trouble	-11.6898
▁Volunteer	-11.6898
▁acquisition	-11.6898
▁discharge	-11.6898
▁ecosystem	-11.6898
▁hairstyle	-11.6898
▁insurgent	-11.6898
▁ironclad	-11.6898
▁jealous	-11.6898
▁maneuver	-11.6898
▁phosphor	-11.6898
▁pseudon	-11.6898
▁recapture	-11.6898
▁theologian	-11.6898
▁unemploy	-11.6898
▁Jacque	-11.6898
▁LED	-11.6898
▁Muhammad	-11.6898
▁constituenc	-11.6898
▁judicia	-11.6898
▁obsess	-11.6898
▁obsole	-11.6898
▁sporadic	-11.6898
▁sprint	-11.6898
▁breast	-11.6898
compatib	-11.6898
▁cultivat	-11.6898
utomobile	-11.6898
▁massacre	-11.6898
▁stereotyp	-11.6898
▁parodie	-11.6898
▁sanction	-11.6898
▁sensation	-11.6898
▁Galile	-11.6898
▁indoor	-11.6898
▁volcan	-11.6898
▁Hutch	-11.6898
▁intimate	-11.6898
▁Veera	-11.6898
▁Fiction	-11.6898
▁endanger	-11.6898
▁width	-11.6898
viole	-11.6898
▁embryo	-11.6898
▁plent	-11.6898
▁Kubic	-11.6898
▁modification	-11.6898
▁concurrent	-11.6898
▁prosper	-11.6898
▁pretend	-11.6898
▁certification	-11.6899
▁Airlines	-11.6899
▁metaphor	-11.6899
▁scout	-11.6899
▁trigger	-11.6899
▁Abbot	-11.69
▁Sylv	-11.69
▁nasal	-11.6901
▁Elliot	-11.6901
▁consultant	-11.6901
▁random	-11.6902
▁betray	-11.6902
▁revolv	-11.6903
▁repel	-11.6904
front	-11.6904
▁mound	-11.6905
runner	-11.6905
▁Homar	-11.6905
world	-11.6907
▁thorough	-11.6908
▁excessive	-11.6908
▁stallion	-11.6911
▁Arena	-11.6911
▁Sieg	-11.6912
▁Denis	-11.6913
▁Round	-11.6915
▁stall	-11.6917
▁Munic	-11.6918
▁hurt	-11.692
▁pour	-11.692
advert	-11.6923
▁Authorit	-11.6924
▁Juda	-11.6925
curr	-11.6936
aphor	-11.6937
fume	-11.694
visibl	-11.6941
igue	-11.6959
mantle	-11.696
runk	-11.6969
▁Memor	-11.698
corporation	-11.6998
efact	-11.7004
▁nationalist	-11.7022
▁municipalit	-11.7024
bust	-11.7063
DT	-11.7073
raba	-11.7087
litz	-11.7132
▁presid	-11.7139
▁missionar	-11.715
urrender	-11.7152
▁oversee	-11.7184
▁manag	-11.7194
▁contemporar	-11.7206
isual	-11.7211
▁prolif	-11.7215
▁disab	-11.7223
▁Gaz	-11.7223
▁kee	-11.723
losa	-11.7267
ruiserweight	-11.7273
▁snap	-11.7276
▁reconstruct	-11.7302
rystal	-11.7313
▁sculpt	-11.7314
otype	-11.7315
▁Municipal	-11.7315
▁Preparat	-11.7315
▁fascinat	-11.7315
▁suspens	-11.7315
‘	-11.7315
▁Broadcast	-11.7315
▁Huguenot	-11.7315
▁Pitcairn	-11.7315
▁bottle	-11.7315
▁cliff	-11.7315
▁consequent	-11.7315
▁convenien	-11.7315
▁encompass	-11.7315
▁enterprise	-11.7315
▁epithet	-11.7315
▁groove	-11.7315
▁incorrect	-11.7315
▁songwriting	-11.7315
▁steamboat	-11.7315
▁violacea	-11.7315
▁Constantinople	-11.7315
▁infiltrat	-11.7315
▁pocket	-11.7315
▁reproduction	-11.7315
▁Candidat	-11.7315
▁Period	-11.7315
▁Scleroderma	-11.7315
▁consort	-11.7315
▁freight	-11.7315
▁hymn	-11.7315
▁inhibit	-11.7315
▁stunt	-11.7315
▁warrant	-11.7315
▁Wonder	-11.7315
▁rumour	-11.7315
▁burst	-11.7315
antho	-11.7315
▁honest	-11.7315
▁Junior	-11.7315
▁grammar	-11.7315
▁Ghat	-11.7315
▁vague	-11.7315
▁Lyric	-11.7315
▁confine	-11.7315
▁dissent	-11.7315
▁Assistan	-11.7316
▁triangula	-11.7316
Connor	-11.7316
▁Iberia	-11.7317
▁Hadd	-11.7317
▁melt	-11.7318
▁haunt	-11.7318
▁Sicil	-11.7319
▁dignit	-11.732
▁disagreement	-11.7321
▁GameSp	-11.7322
▁displacement	-11.7323
▁barrow	-11.7323
▁Patter	-11.7324
▁delica	-11.7325
▁Nature	-11.7327
▁oak	-11.7328
▁deadline	-11.7329
▁sortie	-11.733
▁comedian	-11.7331
▁barge	-11.7339
Down	-11.7356
▁Produc	-11.7388
anche	-11.74
▁Morav	-11.7435
nato	-11.7461
ictionar	-11.7516
UC	-11.7526
▁summari	-11.7549
marca	-11.7606
▁Huai	-11.7608
▁hostilit	-11.7651
▁hydr	-11.766
▁mari	-11.7666
▁unrel	-11.7704
bride	-11.7704
gras	-11.7721
▁Broad	-11.7724
▁Nige	-11.7729
▁Hama	-11.7734
morph	-11.7735
▁destin	-11.7744
▁enthusias	-11.7745
ommercial	-11.7746
▁zoo	-11.7749
ü	-11.7749
▁ribosom	-11.7749
*	-11.7749
~	-11.7749
▁Abraham	-11.7749
▁Abram	-11.7749
▁Affair	-11.7749
▁Patriarch	-11.7749
▁Tribun	-11.7749
▁decree	-11.7749
▁degenerat	-11.7749
▁illuminat	-11.7749
▁jurisdiction	-11.7749
▁lobster	-11.7749
▁metropoli	-11.7749
▁substrate	-11.7749
▁unanimous	-11.7749
▁undergraduate	-11.7749
▁Senior	-11.7749
▁mosque	-11.7749
▁prognos	-11.7749
maxilla	-11.7749
▁constrain	-11.7749
▁licence	-11.7749
▁pianist	-11.7749
▁surprising	-11.7749
▁Siberia	-11.7749
▁boost	-11.7749
▁expir	-11.7749
▁harass	-11.7749
▁bapti	-11.7749
▁comparative	-11.7749
▁Method	-11.7749
▁Centur	-11.7749
▁galax	-11.7749
▁blank	-11.7749
▁unveil	-11.7749
▁Claw	-11.7749
▁Promot	-11.7749
▁resort	-11.7749
▁sparse	-11.7749
▁Pompe	-11.7749
▁spider	-11.775
▁grape	-11.775
▁gauge	-11.775
▁embodi	-11.775
▁brass	-11.775
cFarlan	-11.775
▁embrac	-11.775
▁Reaction	-11.775
▁agaric	-11.775
▁annex	-11.775
▁legitimate	-11.775
▁Believ	-11.775
▁chef	-11.775
▁flashback	-11.7751
▁identification	-11.7751
▁prae	-11.7751
▁Malaya	-11.7751
▁Palen	-11.7751
▁distress	-11.7751
▁Townsville	-11.7753
▁Plato	-11.7753
▁Theodor	-11.7754
▁taxonom	-11.7754
▁golf	-11.7755
▁Sugar	-11.7756
▁Pleas	-11.7756
▁tag	-11.7759
▁octa	-11.776
▁antholog	-11.776
▁contemplat	-11.776
▁fibr	-11.7761
▁Midland	-11.7762
▁proud	-11.7763
▁funnel	-11.7763
▁matri	-11.7765
▁owl	-11.7765
▁Zap	-11.7769
▁Scen	-11.7769
▁Henri	-11.7784
▁Palmyr	-11.7787
▁Idol	-11.7795
▁Aero	-11.78
▁nerv	-11.782
obb	-11.783
market	-11.7836
strong	-11.7837
▁Polyt	-11.7853
loph	-11.7853
▁Soli	-11.7863
▁Iran	-11.7872
▁Jewel	-11.7886
▁ideolog	-11.791
▁allegi	-11.7971
▁Bann	-11.7975
▁temperat	-11.7982
nounce	-11.7985
bark	-11.8007
▁integr	-11.8015
▁blu	-11.8029
greement	-11.8066
building	-11.8087
▁envis	-11.8094
▁forbid	-11.8094
▁Gerr	-11.8135
producti	-11.8136
avelin	-11.8174
▁renovat	-11.8191
obile	-11.8196
▁feat	-11.8202
▁irrigat	-11.8204
š	-11.8204
▁Agricultur	-11.8204
▁Environment	-11.8204
▁Vaishnav	-11.8204
▁bunker	-11.8204
▁compell	-11.8204
▁consecrat	-11.8204
▁immense	-11.8204
▁jacket	-11.8204
▁outdoor	-11.8204
▁pilgrim	-11.8204
▁prehistor	-11.8204
▁privilege	-11.8204
▁reluctan	-11.8204
▁treason	-11.8204
▁unpopular	-11.8204
▁Arbeider	-11.8204
▁Prussia	-11.8204
▁herbivor	-11.8204
▁Oswal	-11.8204
▁affirm	-11.8204
▁client	-11.8204
▁triangle	-11.8204
▁Karamok	-11.8204
▁cheap	-11.8204
▁exempt	-11.8204
▁intrigu	-11.8204
▁myceli	-11.8204
▁Dinosaur	-11.8204
▁Strong	-11.8204
▁gull	-11.8204
▁Eugen	-11.8204
▁theoretical	-11.8204
▁Flood	-11.8204
▁remaster	-11.8204
▁deserve	-11.8204
croft	-11.8204
▁Certificat	-11.8204
▁ghat	-11.8204
▁optimis	-11.8204
▁niche	-11.8204
▁stiff	-11.8204
▁Fashi	-11.8204
▁Cabr	-11.8205
▁nude	-11.8205
▁eager	-11.8205
▁expel	-11.8205
▁spectac	-11.8205
ccles	-11.8205
▁butterfl	-11.8206
nacle	-11.8206
▁WWE	-11.8206
▁torture	-11.8207
extraterrestrial	-11.8207
▁Hydn	-11.8207
▁persistent	-11.8207
▁sperm	-11.8208
▁enthusiastic	-11.8208
▁Peronis	-11.8208
▁kidnap	-11.8208
▁Thanh	-11.8209
▁courage	-11.821
▁bag	-11.8211
moto	-11.8211
▁Spy	-11.8211
▁outrage	-11.8211
▁Borea	-11.8212
▁Hispani	-11.8213
▁hail	-11.8215
▁Ltd	-11.8216
▁gear	-11.8216
▁Money	-11.8222
▁Bryan	-11.8223
yclone	-11.825
▁idol	-11.8283
abbi	-11.8306
▁priorit	-11.8331
ampto	-11.8334
force	-11.834
▁Strange	-11.842
▁Marqu	-11.8427
hemica	-11.8448
rude	-11.8453
mbassador	-11.8541
▁sampl	-11.8557
▁prominen	-11.8641
Octa	-11.8662
pover	-11.8669
leasure	-11.867
▁candida	-11.8677
▁Buddh	-11.8678
▁Nottingham	-11.868
▁resurrect	-11.868
▁Buckingham	-11.868
▁Certain	-11.868
▁Continent	-11.868
▁Dangerous	-11.868
▁Hubbard	-11.868
▁Individual	-11.868
▁Traditional	-11.868
▁accommodation	-11.868
▁bacteria	-11.868
▁beneficia	-11.868
▁distortion	-11.868
▁eucalypt	-11.868
▁migrant	-11.868
▁percussion	-11.868
▁rehabilitat	-11.868
▁superficial	-11.868
▁vigorous	-11.868
▁Appeal	-11.868
▁Benedict	-11.868
▁wonderful	-11.868
▁Cossack	-11.868
▁Indoor	-11.868
▁Standard	-11.868
▁commend	-11.868
▁democra	-11.868
▁pirate	-11.868
▁patent	-11.868
▁Klingon	-11.868
▁breath	-11.868
▁hypo	-11.868
▁vassal	-11.868
ervoi	-11.868
fraction	-11.868
▁vicar	-11.868
▁Vocal	-11.868
▁conscien	-11.868
▁gravitational	-11.868
▁Sleep	-11.868
▁XeF	-11.868
▁outpost	-11.868
▁purpl	-11.868
▁Compar	-11.868
▁Faith	-11.868
▁stamp	-11.868
▁Petit	-11.868
▁ditch	-11.8681
▁nonsens	-11.8681
▁crescen	-11.8681
▁Borg	-11.8681
▁grasp	-11.8681
pulc	-11.8681
▁Phoenicia	-11.8682
▁Tempe	-11.8683
▁drunk	-11.8684
▁textile	-11.8685
jiang	-11.8686
▁Futur	-11.8689
▁tech	-11.869
▁olive	-11.869
▁demoli	-11.8691
▁lamin	-11.8693
▁Tamp	-11.87
▁laser	-11.87
▁Brent	-11.8705
▁Mott	-11.8708
▁tyre	-11.8714
llah	-11.8714
ortrait	-11.8716
MM	-11.8726
gestion	-11.873
▁corona	-11.8746
▁Mongolia	-11.8784
▁Collin	-11.8814
parts	-11.8852
sufficient	-11.8859
volv	-11.8872
Conne	-11.8874
flue	-11.8875
hiban	-11.8908
▁infant	-11.8908
selective	-11.8914
▁Holli	-11.8928
▁worshippe	-11.894
itul	-11.8987
▁Financ	-11.9026
nown	-11.9038
▁etc	-11.9055
▁atmospher	-11.9073
▁Kerr	-11.9093
▁Berli	-11.9103
▁Associat	-11.9168
ō	-11.9177
▁advent	-11.9178
▁Wolver	-11.918
▁authentic	-11.918
hestnut	-11.918
Å	-11.918
▁Architectur	-11.918
▁Communication	-11.918
▁HBO	-11.918
▁Nguy	-11.918
▁Structur	-11.918
▁Tamaulipas	-11.918
▁Templar	-11.918
▁artifact	-11.918
▁diminish	-11.918
▁dreadnought	-11.918
▁emplacement	-11.918
▁institute	-11.918
▁invertebrate	-11.918
▁kilogram	-11.918
▁manoeuvre	-11.918
▁misunderst	-11.918
▁posthumous	-11.918
▁Allāh	-11.918
▁Quarter	-11.918
▁embarrass	-11.918
▁syllable	-11.918
▁vowel	-11.918
Ō	-11.918
▁larva	-11.918
▁admission	-11.918
▁traverse	-11.918
▁trivial	-11.918
▁bounc	-11.918
▁motive	-11.918
▁Specific	-11.918
▁mould	-11.918
▁notorious	-11.918
iracle	-11.918
▁Discover	-11.918
cumb	-11.918
▁engrav	-11.918
▁Cassin	-11.918
▁postpone	-11.9181
▁Mozambican	-11.9181
aceae	-11.9181
anzani	-11.9181
▁sewer	-11.9181
▁Armour	-11.9182
▁preference	-11.9182
▁criteri	-11.9182
▁trauma	-11.9182
▁Window	-11.9183
▁faithful	-11.9184
apilla	-11.9191
▁Mead	-11.9193
▁Diam	-11.92
▁detonat	-11.9211
▁absen	-11.9218
▁Beeth	-11.922
▁Elect	-11.9235
▁Circu	-11.9284
oshi	-11.93
anxi	-11.9355
Music	-11.9412
necessar	-11.9416
identifi	-11.9417
▁Puppet	-11.9445
audi	-11.9473
onfederation	-11.9487
▁Lauren	-11.9562
▁Olivi	-11.9593
▁conspi	-11.9594
prising	-11.9646
▁submit	-11.9661
ignificant	-11.9671
▁leukemi	-11.9675
igator	-11.9678
▁teenage	-11.9689
unnel	-11.9698
▁Phoe	-11.97
isappear	-11.9703
▁bombard	-11.9705
grenadier	-11.9706
piscopa	-11.9706
▁Antarctic	-11.9706
▁Diarma	-11.9706
▁Hundred	-11.9706
▁Orchestra	-11.9706
▁Rodrigue	-11.9706
▁Sovetsk	-11.9706
▁bankrupt	-11.9706
▁clutch	-11.9706
▁librett	-11.9706
▁nutrient	-11.9706
▁pharaoh	-11.9706
▁recipient	-11.9706
▁reptile	-11.9706
▁revelation	-11.9706
▁smuggl	-11.9706
▁spontaneous	-11.9706
▁ESPN	-11.9706
▁bucket	-11.9706
▁derivative	-11.9706
▁eukaryot	-11.9706
▁hazard	-11.9706
▁plaque	-11.9706
chromati	-11.9706
▁Explor	-11.9706
▁Kristians	-11.9706
▁Pilot	-11.9706
▁Statistic	-11.9706
▁burden	-11.9706
▁clerk	-11.9706
▁Eurasia	-11.9706
▁earthstar	-11.9706
▁spoil	-11.9706
▁Lisbon	-11.9706
▁exaggerat	-11.9706
▁Folk	-11.9706
▁midfielder	-11.9706
▁vertebra	-11.9706
ounterfeit	-11.9706
▁DeGro	-11.9706
▁strand	-11.9706
▁refit	-11.9707
skirt	-11.9707
▁wetland	-11.9707
iastical	-11.9707
▁craz	-11.9707
▁wander	-11.9707
▁ultra	-11.9708
▁bulkhead	-11.9708
▁pollut	-11.9708
▁Kumar	-11.9708
▁tendenc	-11.9709
▁Dirt	-11.971
▁Update	-11.9711
▁Scap	-11.9712
▁analog	-11.9713
▁Judg	-11.9714
▁residue	-11.9717
▁Glori	-11.9724
▁Hyp	-11.9731
▁punctu	-11.9739
▁Camero	-11.9744
▁ethic	-11.9767
▁hype	-11.9796
▁Georg	-11.9827
blanc	-11.984
▁subdivi	-11.9861
▁repl	-11.9869
ć	-12.0087
ī	-12.085
ễ	-12.2142
ū	-12.2856
à	-12.2856
ô	-12.2856
ă	-12.2856
^	-12.3625
ê	-12.3625
′	-12.3625
♯	-12.3625
ú	-12.4459
ỳ	-12.4459
‐	-12.4459
Y	-12.4513
Î	-12.5368
≤	-12.5368
å	-12.6368
î	-12.6368
>	-12.6368
ل	-12.6368
ṃ	-12.6368
～	-12.6368
Ā	-12.7479
्	-12.7479
†	-12.7479
€	-12.7479
'	-12.7887
±	-12.8729
ė	-12.8729
〈	-12.8729
・	-12.8729
ž	-12.8729
č	-13.0157
û	-13.0157
α	-13.0157
β	-13.0157
ł	-13.1802
đ	-13.1824
γ	-13.1824
ṭ	-13.1824
ị	-13.1824
„	-13.1824
♭	-13.1824
Đ	-13.3824
̃	-13.3824
ه	-13.3824
჻	-13.3824
ṅ	-13.3824
ầ	-13.3824
ớ	-13.3824
大	-13.3824
空	-13.3824
â	-13.3824
ا	-13.3824
¡	-13.6324
¥	-13.6324
·	-13.6324
ş	-13.6324
ص	-13.6324
ن	-13.6324
ვ	-13.6324
ი	-13.6324
კ	-13.6324
ო	-13.6324
ხ	-13.6324
ჯ	-13.6324
ḥ	-13.6324
ṯ	-13.6324
ả	-13.6324
ấ	-13.6324
火	-13.6324
礮	-13.6324
ح	-13.6324
,	-13.882
ც	-13.9635
Ø	-13.9636
〉	-13.9637
<	-13.9638
ệ	-13.9639
ë	-13.964
É	-13.9641
Æ	-13.9642
”	-13.9643
μ	-13.9644
ç	-13.9645
−	-13.9646
+	-13.9647
?	-13.9648
!	-13.9649
]	-13.965
%	-13.9651
—	-13.9652
/	-13.9653
:	-13.9654
;	-13.9655
)	-13.9656
"	-13.9657
Ú	-13.9657
Ü	-13.9657
\	-13.9657
`	-13.9657
|	-13.9657
§	-13.9657
Á	-13.9657
ò	-13.9657
ń	-13.9657
ų	-13.9657
ʿ	-13.9657
κ	-13.9657
С	-13.9657
а	-13.9657
в	-13.9657
е	-13.9657
к	-13.9657
о	-13.9657
с	-13.9657
т	-13.9657
я	-13.9657
ก	-13.9657
ง	-13.9657
ณ	-13.9657
ต	-13.9657
ม	-13.9657
ย	-13.9657
ร	-13.9657
ล	-13.9657
ั	-13.9657
า	-13.9657
ิ	-13.9657
่	-13.9657
์	-13.9657
გ	-13.9657
დ	-13.9657
ზ	-13.9657
რ	-13.9657
ს	-13.9657
უ	-13.9657
ძ	-13.9657
წ	-13.9657
ṣ	-13.9657
ắ	-13.9657
ử	-13.9657
₤	-13.9657
の	-13.9657
ァ	-13.9657
ア	-13.9657
キ	-13.9657
ッ	-13.9657
ト	-13.9657
プ	-13.9657
ュ	-13.9657
リ	-13.9657
ル	-13.9657
ヴ	-13.9657
動	-13.9657
場	-13.9657
戦	-13.9657
攻	-13.9657
機	-13.9657
殻	-13.9657
隊	-13.9657
Ö	-13.9657
Ł	-13.9657
Ż	-13.9657
ス	-13.9657
=	-13.9658
Þ	-13.9658
